{
  "version": "1.0",
  "truncation": null,
  "padding": null,
  "added_tokens": [
    {
      "id": 0,
      "content": "<PAD>",
      "single_word": false,
      "lstrip": false,
      "rstrip": false,
      "normalized": false,
      "special": true
    },
    {
      "id": 1,
      "content": "<UNK>",
      "single_word": false,
      "lstrip": false,
      "rstrip": false,
      "normalized": false,
      "special": true
    },
    {
      "id": 2,
      "content": "<BOS>",
      "single_word": false,
      "lstrip": false,
      "rstrip": false,
      "normalized": false,
      "special": true
    },
    {
      "id": 3,
      "content": "<EOS>",
      "single_word": false,
      "lstrip": false,
      "rstrip": false,
      "normalized": false,
      "special": true
    }
  ],
  "normalizer": null,
  "pre_tokenizer": {
    "type": "Whitespace"
  },
  "post_processor": null,
  "decoder": null,
  "model": {
    "type": "BPE",
    "dropout": null,
    "unk_token": "<UNK>",
    "continuing_subword_prefix": null,
    "end_of_word_suffix": null,
    "fuse_unk": false,
    "byte_fallback": false,
    "ignore_merges": false,
    "vocab": {
      "<PAD>": 0,
      "<UNK>": 1,
      "<BOS>": 2,
      "<EOS>": 3,
      "!": 4,
      "\"": 5,
      "$": 6,
      "&": 7,
      "'": 8,
      "*": 9,
      ",": 10,
      "-": 11,
      ".": 12,
      "0": 13,
      "1": 14,
      "2": 15,
      "3": 16,
      "4": 17,
      "5": 18,
      "6": 19,
      "7": 20,
      "8": 21,
      "9": 22,
      ":": 23,
      ";": 24,
      "?": 25,
      "A": 26,
      "B": 27,
      "C": 28,
      "D": 29,
      "E": 30,
      "F": 31,
      "G": 32,
      "H": 33,
      "I": 34,
      "J": 35,
      "K": 36,
      "L": 37,
      "M": 38,
      "N": 39,
      "O": 40,
      "P": 41,
      "Q": 42,
      "R": 43,
      "S": 44,
      "T": 45,
      "U": 46,
      "V": 47,
      "W": 48,
      "X": 49,
      "Y": 50,
      "Z": 51,
      "a": 52,
      "b": 53,
      "c": 54,
      "d": 55,
      "e": 56,
      "f": 57,
      "g": 58,
      "h": 59,
      "i": 60,
      "j": 61,
      "k": 62,
      "l": 63,
      "m": 64,
      "n": 65,
      "o": 66,
      "p": 67,
      "q": 68,
      "r": 69,
      "s": 70,
      "t": 71,
      "u": 72,
      "v": 73,
      "w": 74,
      "x": 75,
      "y": 76,
      "z": 77,
      "¡": 78,
      "¦": 79,
      "©": 80,
      "«": 81,
      "±": 82,
      "³": 83,
      "»": 84,
      "Â": 85,
      "Ã": 86,
      "â": 87,
      "œ": 88,
      "˜": 89,
      "“": 90,
      "”": 91,
      "€": 92,
      "™": 93,
      "he": 94,
      "an": 95,
      "the": 96,
      "ed": 97,
      "and": 98,
      "to": 99,
      "in": 100,
      "re": 101,
      "wa": 102,
      "ou": 103,
      "it": 104,
      "ha": 105,
      "er": 106,
      "was": 107,
      "en": 108,
      "om": 109,
      "on": 110,
      "ar": 111,
      "ing": 112,
      "is": 113,
      "The": 114,
      "id": 115,
      "il": 116,
      "sa": 117,
      "le": 118,
      "ay": 119,
      "im": 120,
      "lo": 121,
      "al": 122,
      "st": 123,
      "or": 124,
      "her": 125,
      "th": 126,
      "He": 127,
      "ir": 128,
      "She": 129,
      "be": 130,
      "ne": 131,
      "hat": 132,
      "ver": 133,
      "ut": 134,
      "se": 135,
      "ck": 136,
      "said": 137,
      "ld": 138,
      "ce": 139,
      "They": 140,
      "at": 141,
      "am": 142,
      "ke": 143,
      "she": 144,
      "ig": 145,
      "no": 146,
      "ve": 147,
      "pp": 148,
      "ily": 149,
      "pl": 150,
      "so": 151,
      "ith": 152,
      "his": 153,
      "with": 154,
      "ri": 155,
      "ly": 156,
      "ked": 157,
      "ad": 158,
      "of": 159,
      "day": 160,
      "un": 161,
      "you": 162,
      "Lily": 163,
      "very": 164,
      "up": 165,
      "ome": 166,
      "we": 167,
      "my": 168,
      "that": 169,
      "li": 170,
      "as": 171,
      "ho": 172,
      "ted": 173,
      "go": 174,
      "do": 175,
      "had": 176,
      "play": 177,
      "for": 178,
      "they": 179,
      "mom": 180,
      "el": 181,
      "nd": 182,
      "ro": 183,
      "es": 184,
      "bo": 185,
      "ch": 186,
      "ould": 187,
      "all": 188,
      "end": 189,
      "itt": 190,
      "ent": 191,
      "ge": 192,
      "tim": 193,
      "happ": 194,
      "wan": 195,
      "ittle": 196,
      "ound": 197,
      "little": 198,
      "time": 199,
      "ther": 200,
      "there": 201,
      "out": 202,
      "ok": 203,
      "sm": 204,
      "It": 205,
      "are": 206,
      "ht": 207,
      "ra": 208,
      "big": 209,
      "ry": 210,
      "happy": 211,
      "riend": 212,
      "friend": 213,
      "not": 214,
      "but": 215,
      "ack": 216,
      "saw": 217,
      "thing": 218,
      "Tim": 219,
      "One": 220,
      "ul": 221,
      "On": 222,
      "ter": 223,
      ".\"": 224,
      "ake": 225,
      "one": 226,
      "ide": 227,
      "ved": 228,
      "Once": 229,
      "some": 230,
      "!\"": 231,
      "ug": 232,
      "way": 233,
      "were": 234,
      "irl": 235,
      "upon": 236,
      "him": 237,
      "car": 238,
      "girl": 239,
      "et": 240,
      "fe": 241,
      "wanted": 242,
      "ful": 243,
      "smil": 244,
      "sp": 245,
      "ag": 246,
      "ex": 247,
      "ur": 248,
      "could": 249,
      "ill": 250,
      "hen": 251,
      "ec": 252,
      "co": 253,
      "them": 254,
      "sh": 255,
      "went": 256,
      "mo": 257,
      "hel": 258,
      "ind": 259,
      "nam": 260,
      "Tom": 261,
      "did": 262,
      "their": 263,
      "rom": 264,
      "me": 265,
      "can": 266,
      "new": 267,
      "have": 268,
      "help": 269,
      "um": 270,
      "Ben": 271,
      "?\"": 272,
      "friends": 273,
      "hed": 274,
      "ab": 275,
      "But": 276,
      "ight": 277,
      "ain": 278,
      "od": 279,
      "fel": 280,
      "smiled": 281,
      "back": 282,
      "ic": 283,
      "Timmy": 284,
      "named": 285,
      "side": 286,
      "ys": 287,
      "wn": 288,
      "asked": 289,
      "fun": 290,
      "fo": 291,
      "ran": 292,
      "oug": 293,
      "ark": 294,
      "star": 295,
      "loo": 296,
      "loved": 297,
      "man": 298,
      "around": 299,
      "too": 300,
      "la": 301,
      "like": 302,
      "looked": 303,
      "ard": 304,
      "felt": 305,
      "ick": 306,
      "ame": 307,
      "low": 308,
      "You": 309,
      "sto": 310,
      "boy": 311,
      "bir": 312,
      "ure": 313,
      "see": 314,
      "wor": 315,
      "would": 316,
      "bird": 317,
      "gether": 318,
      "ree": 319,
      "fa": 320,
      "ong": 321,
      "how": 322,
      "ts": 323,
      "po": 324,
      "pr": 325,
      "ll": 326,
      "dd": 327,
      "Mom": 328,
      "now": 329,
      "make": 330,
      "other": 331,
      "together": 332,
      "started": 333,
      "what": 334,
      "ca": 335,
      "ited": 336,
      "ice": 337,
      ",\"": 338,
      "something": 339,
      "away": 340,
      "ade": 341,
      "came": 342,
      "exc": 343,
      "oud": 344,
      "ss": 345,
      "gr": 346,
      "park": 347,
      "op": 348,
      "made": 349,
      "pped": 350,
      "get": 351,
      "from": 352,
      "look": 353,
      "pe": 354,
      "sad": 355,
      "us": 356,
      "then": 357,
      "home": 358,
      "put": 359,
      "again": 360,
      "got": 361,
      "wal": 362,
      "ue": 363,
      "found": 364,
      "if": 365,
      "scar": 366,
      "ally": 367,
      "when": 368,
      "ought": 369,
      "want": 370,
      "who": 371,
      "ie": 372,
      "excited": 373,
      "playing": 374,
      "ep": 375,
      "by": 376,
      "ust": 377,
      "dec": 378,
      "ried": 379,
      "ach": 380,
      "king": 381,
      "good": 382,
      "na": 383,
      "uch": 384,
      "ous": 385,
      "more": 386,
      "ny": 387,
      "things": 388,
      "ave": 389,
      "hug": 390,
      "uck": 391,
      "udd": 392,
      "every": 393,
      "jo": 394,
      "der": 395,
      "ided": 396,
      "decided": 397,
      "use": 398,
      "care": 399,
      "ouse": 400,
      "Jo": 401,
      "than": 402,
      "dog": 403,
      "down": 404,
      "scared": 405,
      "ways": 406,
      "liked": 407,
      "ara": 408,
      "wo": 409,
      "So": 410,
      "Sam": 411,
      "tree": 412,
      "feel": 413,
      "take": 414,
      "bb": 415,
      "clo": 416,
      "find": 417,
      "says": 418,
      "sha": 419,
      "your": 420,
      "dad": 421,
      "ax": 422,
      "old": 423,
      "always": 424,
      "ate": 425,
      "here": 426,
      "ac": 427,
      "ang": 428,
      "ite": 429,
      "wh": 430,
      "our": 431,
      "thought": 432,
      "didn": 433,
      "spec": 434,
      "qu": 435,
      "room": 436,
      "about": 437,
      "Max": 438,
      "Sara": 439,
      "took": 440,
      "When": 441,
      "br": 442,
      "ret": 443,
      "arn": 444,
      "udden": 445,
      "laug": 446,
      "ise": 447,
      "outside": 448,
      "mommy": 449,
      "Her": 450,
      "Jack": 451,
      "uddenly": 452,
      "ened": 453,
      "ers": 454,
      "de": 455,
      "ial": 456,
      "fore": 457,
      "ant": 458,
      "An": 459,
      "ol": 460,
      "ma": 461,
      "special": 462,
      "toys": 463,
      "knew": 464,
      "ive": 465,
      "ty": 466,
      "any": 467,
      "ear": 468,
      "learn": 469,
      "know": 470,
      "red": 471,
      "We": 472,
      "ged": 473,
      "cat": 474,
      "never": 475,
      "ow": 476,
      "fter": 477,
      "will": 478,
      "come": 479,
      "sun": 480,
      "ven": 481,
      "ish": 482,
      "uc": 483,
      "toy": 484,
      "able": 485,
      "Anna": 486,
      "tr": 487,
      "Every": 488,
      "show": 489,
      "bl": 490,
      "house": 491,
      "rd": 492,
      "into": 493,
      "much": 494,
      "Suddenly": 495,
      "couldn": 496,
      "lf": 497,
      "ist": 498,
      "sor": 499,
      "sk": 500,
      "dre": 501,
      "Let": 502,
      "ball": 503,
      "told": 504,
      "careful": 505,
      "sw": 506,
      "pa": 507,
      "bu": 508,
      "ta": 509,
      "this": 510,
      "gave": 511,
      "hand": 512,
      "over": 513,
      "inside": 514,
      "exp": 515,
      "long": 516,
      "proud": 517,
      "cl": 518,
      "heard": 519,
      "te": 520,
      "His": 521,
      "reat": 522,
      "run": 523,
      "ob": 524,
      "ink": 525,
      "pick": 526,
      "ion": 527,
      "played": 528,
      "cle": 529,
      "tried": 530,
      "From": 531,
      "bro": 532,
      "dy": 533,
      "water": 534,
      "tter": 535,
      "just": 536,
      "led": 537,
      "ia": 538,
      "small": 539,
      "box": 540,
      "ump": 541,
      "wat": 542,
      "fly": 543,
      "com": 544,
      "That": 545,
      "flow": 546,
      "eat": 547,
      "ough": 548,
      "unt": 549,
      "hugged": 550,
      "sorry": 551,
      "rabb": 552,
      "ving": 553,
      "What": 554,
      "Then": 555,
      "lad": 556,
      "cause": 557,
      "try": 558,
      "call": 559,
      "because": 560,
      "ile": 561,
      "need": 562,
      "iz": 563,
      "read": 564,
      "che": 565,
      "explo": 566,
      "hn": 567,
      "John": 568,
      "off": 569,
      "pret": 570,
      "bea": 571,
      "And": 572,
      "shin": 573,
      "nice": 574,
      "self": 575,
      "each": 576,
      "vent": 577,
      "love": 578,
      "ber": 579,
      "Yes": 580,
      "ace": 581,
      "laughed": 582,
      "bear": 583,
      "thanked": 584,
      "until": 585,
      "many": 586,
      "beaut": 587,
      "per": 588,
      "Mia": 589,
      "imal": 590,
      "don": 591,
      "ning": 592,
      "animal": 593,
      "best": 594,
      "ting": 595,
      "its": 596,
      "fi": 597,
      "Bob": 598,
      "fast": 599,
      "even": 600,
      "kind": 601,
      "sur": 602,
      "better": 603,
      "ama": 604,
      "learned": 605,
      "gard": 606,
      "bra": 607,
      "garden": 608,
      "iful": 609,
      "beautiful": 610,
      "pt": 611,
      "lots": 612,
      "joy": 613,
      "where": 614,
      "Luc": 615,
      "bed": 616,
      "sho": 617,
      "Lucy": 618,
      "Mommy": 619,
      "ass": 620,
      "yes": 621,
      "lived": 622,
      "As": 623,
      "rong": 624,
      "fle": 625,
      "sky": 626,
      "fin": 627,
      "ft": 628,
      "two": 629,
      "igh": 630,
      "ched": 631,
      "ank": 632,
      "called": 633,
      "won": 634,
      "app": 635,
      "€™": 636,
      "ell": 637,
      "jump": 638,
      "hur": 639,
      "both": 640,
      "let": 641,
      "urn": 642,
      "safe": 643,
      "Can": 644,
      "rain": 645,
      "still": 646,
      "ground": 647,
      "imp": 648,
      "under": 649,
      "ble": 650,
      "fam": 651,
      "loud": 652,
      "con": 653,
      "sc": 654,
      "list": 655,
      "ane": 656,
      "After": 657,
      "stay": 658,
      "say": 659,
      "nt": 660,
      "brave": 661,
      "Th": 662,
      "walked": 663,
      "surpr": 664,
      "flew": 665,
      "give": 666,
      "ru": 667,
      "ied": 668,
      "soon": 669,
      "animals": 670,
      "keep": 671,
      "hard": 672,
      "pu": 673,
      "ser": 674,
      "explore": 675,
      "ort": 676,
      "ine": 677,
      "ct": 678,
      "ople": 679,
      "repl": 680,
      "No": 681,
      "going": 682,
      "Thank": 683,
      "ised": 684,
      "bad": 685,
      "doll": 686,
      "kept": 687,
      "ummy": 688,
      "feeling": 689,
      "ished": 690,
      "should": 691,
      "rm": 692,
      "book": 693,
      "pic": 694,
      "family": 695,
      "mor": 696,
      "people": 697,
      "lea": 698,
      "advent": 699,
      "row": 700,
      "door": 701,
      "win": 702,
      "ild": 703,
      "iced": 704,
      "before": 705,
      "cry": 706,
      "while": 707,
      "nodd": 708,
      "walking": 709,
      "ste": 710,
      "illy": 711,
      "far": 712,
      "share": 713,
      "shiny": 714,
      "cu": 715,
      "nodded": 716,
      "angry": 717,
      "opened": 718,
      "real": 719,
      "set": 720,
      "Dad": 721,
      "right": 722,
      "hurt": 723,
      "picked": 724,
      "replied": 725,
      "place": 726,
      "pretty": 727,
      "vo": 728,
      "tre": 729,
      "lot": 730,
      "dra": 731,
      "spo": 732,
      "clean": 733,
      "pot": 734,
      "year": 735,
      "Jane": 736,
      "looking": 737,
      "noticed": 738,
      "stopped": 739,
      "ture": 740,
      "noise": 741,
      "idea": 742,
      "fish": 743,
      "mber": 744,
      "lie": 745,
      "adventure": 746,
      "rock": 747,
      "weet": 748,
      "great": 749,
      "sl": 750,
      "has": 751,
      "work": 752,
      "Sue": 753,
      "quick": 754,
      "gan": 755,
      "les": 756,
      "nex": 757,
      "ph": 758,
      "dis": 759,
      "lock": 760,
      "face": 761,
      "Lo": 762,
      "ious": 763,
      "less": 764,
      "smile": 765,
      "pain": 766,
      "walk": 767,
      "next": 768,
      "ever": 769,
      "voice": 770,
      "enjoy": 771,
      "art": 772,
      "member": 773,
      "used": 774,
      "night": 775,
      "ring": 776,
      "colo": 777,
      "amaz": 778,
      "truck": 779,
      "clim": 780,
      "wonder": 781,
      "picture": 782,
      "head": 783,
      "ught": 784,
      "eyes": 785,
      "ask": 786,
      "turn": 787,
      "wait": 788,
      "rabbit": 789,
      "quickly": 790,
      "This": 791,
      "being": 792,
      "ak": 793,
      "after": 794,
      "color": 795,
      "hands": 796,
      "dif": 797,
      "remember": 798,
      "irst": 799,
      "rest": 800,
      "watch": 801,
      "anc": 802,
      "isy": 803,
      "bye": 804,
      "three": 805,
      "near": 806,
      "tal": 807,
      "ner": 808,
      "forest": 809,
      "ip": 810,
      "tin": 811,
      "Do": 812,
      "gre": 813,
      "mon": 814,
      "food": 815,
      "blue": 816,
      "everyone": 817,
      "flower": 818,
      "flowers": 819,
      "been": 820,
      "closer": 821,
      "olly": 822,
      "curi": 823,
      "became": 824,
      "strong": 825,
      "listen": 826,
      "Look": 827,
      "also": 828,
      "ess": 829,
      "import": 830,
      "mum": 831,
      "aybe": 832,
      "ream": 833,
      "sure": 834,
      "hair": 835,
      "Joe": 836,
      "rough": 837,
      "swing": 838,
      "watched": 839,
      "ff": 840,
      "curious": 841,
      "showed": 842,
      "ized": 843,
      "important": 844,
      "sound": 845,
      "Sarah": 846,
      "think": 847,
      "mag": 848,
      "ward": 849,
      "bright": 850,
      "llow": 851,
      "ster": 852,
      "Spot": 853,
      "own": 854,
      "top": 855,
      "okay": 856,
      "cou": 857,
      "goodbye": 858,
      "leave": 859,
      "fere": 860,
      "tell": 861,
      "ired": 862,
      "follow": 863,
      "fro": 864,
      "stick": 865,
      "high": 866,
      "store": 867,
      "differe": 868,
      "aisy": 869,
      "lease": 870,
      "laugh": 871,
      "pare": 872,
      "slide": 873,
      "bit": 874,
      "bow": 875,
      "tor": 876,
      "boat": 877,
      "ance": 878,
      "first": 879,
      "stand": 880,
      "ila": 881,
      "bre": 882,
      "Don": 883,
      "ered": 884,
      "ond": 885,
      "ready": 886,
      "yel": 887,
      "fl": 888,
      "sing": 889,
      "bal": 890,
      "ies": 891,
      "warm": 892,
      "leep": 893,
      "world": 894,
      "game": 895,
      "began": 896,
      "different": 897,
      "anymore": 898,
      "In": 899,
      "sn": 900,
      "pul": 901,
      "Sally": 902,
      "butter": 903,
      "ket": 904,
      "mean": 905,
      "ached": 906,
      "Lila": 907,
      "grabb": 908,
      "open": 909,
      "Daisy": 910,
      "jumped": 911,
      "light": 912,
      "med": 913,
      "story": 914,
      "ries": 915,
      "ung": 916,
      "dress": 917,
      "din": 918,
      "ash": 919,
      "mis": 920,
      "zy": 921,
      "hopped": 922,
      "grabbed": 923,
      "squ": 924,
      "through": 925,
      "table": 926,
      "Molly": 927,
      "air": 928,
      "Wh": 929,
      "happened": 930,
      "Maybe": 931,
      "flo": 932,
      "really": 933,
      "par": 934,
      "andma": 935,
      "outed": 936,
      "helped": 937,
      "lady": 938,
      "fav": 939,
      "Hel": 940,
      "name": 941,
      "Everyone": 942,
      "times": 943,
      "cook": 944,
      "sand": 945,
      "shouted": 946,
      "unny": 947,
      "block": 948,
      "having": 949,
      "Now": 950,
      "kit": 951,
      "fell": 952,
      "dro": 953,
      "que": 954,
      "fire": 955,
      "glad": 956,
      "cake": 957,
      "pet": 958,
      "seen": 959,
      "tired": 960,
      "only": 961,
      "years": 962,
      "fill": 963,
      "mouse": 964,
      "why": 965,
      "deli": 966,
      "draw": 967,
      "chen": 968,
      "shed": 969,
      "magic": 970,
      "kitchen": 971,
      "grass": 972,
      "coming": 973,
      "ike": 974,
      "nts": 975,
      "bor": 976,
      "hear": 977,
      "worry": 978,
      "soft": 979,
      "reached": 980,
      "parents": 981,
      "ient": 982,
      "brother": 983,
      "col": 984,
      "done": 985,
      "uff": 986,
      "To": 987,
      "wel": 988,
      "\".": 989,
      "mar": 990,
      "waved": 991,
      "Tommy": 992,
      "Em": 993,
      "hind": 994,
      "cut": 995,
      "sed": 996,
      "ued": 997,
      "pie": 998,
      "ater": 999,
      "pond": 1000,
      "birds": 1001,
      "fix": 1002,
      "kid": 1003,
      "himself": 1004,
      "surprise": 1005,
      "ath": 1006,
      "bug": 1007,
      "ken": 1008,
      "sweet": 1009,
      "behind": 1010,
      "stop": 1011,
      "prin": 1012,
      "There": 1013,
      "running": 1014,
      "wood": 1015,
      "Jim": 1016,
      "cold": 1017,
      "ary": 1018,
      "move": 1019,
      "mer": 1020,
      "ped": 1021,
      "dow": 1022,
      "happily": 1023,
      "age": 1024,
      "realized": 1025,
      "Fin": 1026,
      "yummy": 1027,
      "tra": 1028,
      "Wow": 1029,
      "bunny": 1030,
      "worked": 1031,
      "green": 1032,
      "dark": 1033,
      "frog": 1034,
      "favor": 1035,
      "cra": 1036,
      "stran": 1037,
      "catch": 1038,
      "rel": 1039,
      "favorite": 1040,
      "delic": 1041,
      "prom": 1042,
      "funny": 1043,
      "swim": 1044,
      "At": 1045,
      "bot": 1046,
      "Jen": 1047,
      "ger": 1048,
      "does": 1049,
      "ds": 1050,
      "close": 1051,
      "pro": 1052,
      "making": 1053,
      "yellow": 1054,
      "carefully": 1055,
      "touch": 1056,
      "mother": 1057,
      "full": 1058,
      "contin": 1059,
      "race": 1060,
      "Benny": 1061,
      "lion": 1062,
      "reed": 1063,
      "piece": 1064,
      "duck": 1065,
      "aby": 1066,
      "looks": 1067,
      "another": 1068,
      "arri": 1069,
      "ation": 1070,
      "enjoyed": 1071,
      "Jill": 1072,
      "sat": 1073,
      "ign": 1074,
      "remembered": 1075,
      "wind": 1076,
      "cor": 1077,
      "key": 1078,
      "fr": 1079,
      "plan": 1080,
      "cast": 1081,
      "anything": 1082,
      "wonderful": 1083,
      "pre": 1084,
      "slow": 1085,
      "wer": 1086,
      "andy": 1087,
      "Hello": 1088,
      "cried": 1089,
      "trees": 1090,
      "doing": 1091,
      "bag": 1092,
      "wrong": 1093,
      "hole": 1094,
      "pretend": 1095,
      "butterfly": 1096,
      "agreed": 1097,
      "dream": 1098,
      "kids": 1099,
      "cla": 1100,
      "yard": 1101,
      "wear": 1102,
      "oney": 1103,
      "buy": 1104,
      "oo": 1105,
      "herself": 1106,
      "dri": 1107,
      "sees": 1108,
      "climb": 1109,
      "thank": 1110,
      "finished": 1111,
      "ple": 1112,
      "sleep": 1113,
      "friendly": 1114,
      "met": 1115,
      "tall": 1116,
      "ppy": 1117,
      "continued": 1118,
      "hill": 1119,
      "cool": 1120,
      "blocks": 1121,
      "build": 1122,
      "filled": 1123,
      "surprised": 1124,
      "arrived": 1125,
      "tle": 1126,
      "left": 1127,
      "most": 1128,
      "needed": 1129,
      "lesson": 1130,
      "held": 1131,
      "chil": 1132,
      "hid": 1133,
      "em": 1134,
      "fair": 1135,
      "creat": 1136,
      "Finally": 1137,
      "dren": 1138,
      "lost": 1139,
      "Amy": 1140,
      "wished": 1141,
      "window": 1142,
      "children": 1143,
      "mess": 1144,
      "arm": 1145,
      "hold": 1146,
      "spot": 1147,
      "Billy": 1148,
      "gent": 1149,
      "getting": 1150,
      "cars": 1151,
      "vis": 1152,
      "asure": 1153,
      "ield": 1154,
      "snow": 1155,
      "moment": 1156,
      "floor": 1157,
      "cho": 1158,
      "ined": 1159,
      "Why": 1160,
      "bar": 1161,
      "morning": 1162,
      "ens": 1163,
      "enough": 1164,
      "wards": 1165,
      "gu": 1166,
      "ray": 1167,
      "followed": 1168,
      "someone": 1169,
      "poin": 1170,
      "broken": 1171,
      "ross": 1172,
      "trying": 1173,
      "gon": 1174,
      "tight": 1175,
      "fect": 1176,
      "fox": 1177,
      "castle": 1178,
      "mat": 1179,
      "dinner": 1180,
      "ze": 1181,
      "tast": 1182,
      "delicious": 1183,
      "please": 1184,
      "av": 1185,
      "mou": 1186,
      "strange": 1187,
      "perfect": 1188,
      "erous": 1189,
      "ings": 1190,
      "brought": 1191,
      "gone": 1192,
      "hung": 1193,
      "amazing": 1194,
      "ather": 1195,
      "cess": 1196,
      "few": 1197,
      "might": 1198,
      "baby": 1199,
      "forgot": 1200,
      "danc": 1201,
      "finally": 1202,
      "Gr": 1203,
      "woods": 1204,
      "gl": 1205,
      "song": 1206,
      "cha": 1207,
      "mus": 1208,
      "irrel": 1209,
      "ange": 1210,
      "deep": 1211,
      "fight": 1212,
      "roll": 1213,
      "beach": 1214,
      "tri": 1215,
      "sail": 1216,
      "understand": 1217,
      "uffy": 1218,
      "pat": 1219,
      "oup": 1220,
      "dir": 1221,
      "paper": 1222,
      "loon": 1223,
      "else": 1224,
      "tail": 1225,
      "leaves": 1226,
      "balloon": 1227,
      "pping": 1228,
      "squirrel": 1229,
      "cked": 1230,
      "cream": 1231,
      "mi": 1232,
      "cover": 1233,
      "others": 1234,
      "sit": 1235,
      "scary": 1236,
      "white": 1237,
      "appear": 1238,
      "kno": 1239,
      "train": 1240,
      "cloud": 1241,
      "land": 1242,
      "Come": 1243,
      "daddy": 1244,
      "Mama": 1245,
      "everything": 1246,
      "ride": 1247,
      "icy": 1248,
      "plain": 1249,
      "turned": 1250,
      "fur": 1251,
      "talk": 1252,
      "break": 1253,
      "whe": 1254,
      "bike": 1255,
      "wasn": 1256,
      "ves": 1257,
      "likes": 1258,
      "books": 1259,
      "pink": 1260,
      "spl": 1261,
      "colors": 1262,
      "hot": 1263,
      "amazed": 1264,
      "alone": 1265,
      "Jimmy": 1266,
      "waited": 1267,
      "pictures": 1268,
      "ose": 1269,
      "flying": 1270,
      "pen": 1271,
      "ated": 1272,
      "Soon": 1273,
      "stayed": 1274,
      "pack": 1275,
      "bus": 1276,
      "ng": 1277,
      "spark": 1278,
      "job": 1279,
      "moral": 1280,
      "Oh": 1281,
      "ele": 1282,
      "sear": 1283,
      "paint": 1284,
      "listened": 1285,
      "hor": 1286,
      "sometimes": 1287,
      "dang": 1288,
      "promised": 1289,
      "All": 1290,
      "grow": 1291,
      "kay": 1292,
      "belie": 1293,
      "sis": 1294,
      "ually": 1295,
      "lice": 1296,
      "Some": 1297,
      "dr": 1298,
      "thy": 1299,
      "music": 1300,
      "Just": 1301,
      "climbed": 1302,
      "Go": 1303,
      "wall": 1304,
      "bee": 1305,
      "shared": 1306,
      "pes": 1307,
      "towards": 1308,
      "hide": 1309,
      "thes": 1310,
      "hungry": 1311,
      "fall": 1312,
      "field": 1313,
      "grandma": 1314,
      "lake": 1315,
      "living": 1316,
      "ucky": 1317,
      "clothes": 1318,
      "Hi": 1319,
      "board": 1320,
      "bigger": 1321,
      "des": 1322,
      "makes": 1323,
      "sec": 1324,
      "wet": 1325,
      "tw": 1326,
      "stepped": 1327,
      "dance": 1328,
      "whis": 1329,
      "slowly": 1330,
      "answ": 1331,
      "rew": 1332,
      "ment": 1333,
      "pers": 1334,
      "Be": 1335,
      "visit": 1336,
      "ot": 1337,
      "su": 1338,
      "sy": 1339,
      "wants": 1340,
      "bath": 1341,
      "ames": 1342,
      "must": 1343,
      "cket": 1344,
      "mu": 1345,
      "puppy": 1346,
      "mind": 1347,
      "magical": 1348,
      "ence": 1349,
      "silly": 1350,
      "neigh": 1351,
      "Mum": 1352,
      "Daddy": 1353,
      "pulled": 1354,
      "mix": 1355,
      "ich": 1356,
      "heav": 1357,
      "faster": 1358,
      "gg": 1359,
      "zz": 1360,
      "asks": 1361,
      "join": 1362,
      "smiles": 1363,
      "treasure": 1364,
      "pass": 1365,
      "swa": 1366,
      "ju": 1367,
      "pur": 1368,
      "grate": 1369,
      "phone": 1370,
      "grateful": 1371,
      "buck": 1372,
      "cup": 1373,
      "har": 1374,
      "farmer": 1375,
      "crying": 1376,
      "swam": 1377,
      "monster": 1378,
      "party": 1379,
      "dry": 1380,
      "helping": 1381,
      "worried": 1382,
      "nap": 1383,
      "black": 1384,
      "eleph": 1385,
      "heavy": 1386,
      "ons": 1387,
      "ventually": 1388,
      "appeared": 1389,
      "bran": 1390,
      "ctor": 1391,
      "blan": 1392,
      "wr": 1393,
      "across": 1394,
      "pieces": 1395,
      "believe": 1396,
      "sister": 1397,
      "Tweet": 1398,
      "gi": 1399,
      "je": 1400,
      "reach": 1401,
      "explain": 1402,
      "Mr": 1403,
      "dragon": 1404,
      "dangerous": 1405,
      "Sure": 1406,
      "such": 1407,
      "iting": 1408,
      "teddy": 1409,
      "smel": 1410,
      "cookies": 1411,
      "Mary": 1412,
      "OK": 1413,
      "af": 1414,
      "lone": 1415,
      "ton": 1416,
      "dolls": 1417,
      "lonely": 1418,
      "gif": 1419,
      "igg": 1420,
      "colorful": 1421,
      "words": 1422,
      "exploring": 1423,
      "Okay": 1424,
      "treat": 1425,
      "orange": 1426,
      "pper": 1427,
      "del": 1428,
      "secret": 1429,
      "min": 1430,
      "ises": 1431,
      "Emma": 1432,
      "gentle": 1433,
      "money": 1434,
      "stuck": 1435,
      "broke": 1436,
      "rown": 1437,
      "coin": 1438,
      "closed": 1439,
      "owl": 1440,
      "ident": 1441,
      "without": 1442,
      "clapped": 1443,
      "ire": 1444,
      "ling": 1445,
      "though": 1446,
      "ney": 1447,
      "everywhere": 1448,
      "mouth": 1449,
      "same": 1450,
      "ses": 1451,
      "hig": 1452,
      "ps": 1453,
      "young": 1454,
      "Grandma": 1455,
      "Fl": 1456,
      "candy": 1457,
      "iet": 1458,
      "heal": 1459,
      "ourse": 1460,
      "shine": 1461,
      "suddenly": 1462,
      "river": 1463,
      "doctor": 1464,
      "Pe": 1465,
      "free": 1466,
      "stone": 1467,
      "stood": 1468,
      "seemed": 1469,
      "snack": 1470,
      "tent": 1471,
      "town": 1472,
      "oun": 1473,
      "happen": 1474,
      "eating": 1475,
      "ap": 1476,
      "kite": 1477,
      "hes": 1478,
      "start": 1479,
      "bucket": 1480,
      "teac": 1481,
      "ase": 1482,
      "quiet": 1483,
      "longer": 1484,
      "apple": 1485,
      "blanket": 1486,
      "shop": 1487,
      "elephant": 1488,
      "fused": 1489,
      "sign": 1490,
      "My": 1491,
      "unch": 1492,
      "bite": 1493,
      "sent": 1494,
      "hool": 1495,
      "school": 1496,
      "itty": 1497,
      "cheered": 1498,
      "Inside": 1499,
      "higher": 1500,
      "sea": 1501,
      "shoes": 1502,
      "scream": 1503,
      "Fluffy": 1504,
      "today": 1505,
      "tiny": 1506,
      "course": 1507,
      "Mummy": 1508,
      "bas": 1509,
      "gra": 1510,
      "twin": 1511,
      "relie": 1512,
      "hoped": 1513,
      "coun": 1514,
      "chair": 1515,
      "child": 1516,
      "acc": 1517,
      "comfor": 1518,
      "adventures": 1519,
      "upset": 1520,
      "ull": 1521,
      "wouldn": 1522,
      "welcome": 1523,
      "fru": 1524,
      "jour": 1525,
      "stu": 1526,
      "carry": 1527,
      "ours": 1528,
      "brown": 1529,
      "bring": 1530,
      "ions": 1531,
      "dirty": 1532,
      "round": 1533,
      "along": 1534,
      "owner": 1535,
      "cave": 1536,
      "pocket": 1537,
      "Sammy": 1538,
      "stead": 1539,
      "nearby": 1540,
      "accident": 1541,
      "pra": 1542,
      "threw": 1543,
      "drove": 1544,
      "twins": 1545,
      "Please": 1546,
      "power": 1547,
      "pushed": 1548,
      "princess": 1549,
      "fairy": 1550,
      "basket": 1551,
      "cray": 1552,
      "kis": 1553,
      "teacher": 1554,
      "val": 1555,
      "moved": 1556,
      "caught": 1557,
      "Later": 1558,
      "da": 1559,
      "backyard": 1560,
      "thinks": 1561,
      "explained": 1562,
      "ek": 1563,
      "well": 1564,
      "naught": 1565,
      "stre": 1566,
      "Emily": 1567,
      "Jenny": 1568,
      "wise": 1569,
      "dropped": 1570,
      "ten": 1571,
      "rot": 1572,
      "bowl": 1573,
      "games": 1574,
      "wings": 1575,
      "pol": 1576,
      "sunny": 1577,
      "taking": 1578,
      "naughty": 1579,
      "ming": 1580,
      "woke": 1581,
      "relieved": 1582,
      "ible": 1583,
      "lunch": 1584,
      "wish": 1585,
      "str": 1586,
      "quest": 1587,
      "touc": 1588,
      "push": 1589,
      "pull": 1590,
      "mine": 1591,
      "soup": 1592,
      "tower": 1593,
      "life": 1594,
      "smart": 1595,
      "laughing": 1596,
      "itch": 1597,
      "boun": 1598,
      "late": 1599,
      "belong": 1600,
      "rainbow": 1601,
      "swings": 1602,
      "dist": 1603,
      "heart": 1604,
      "vill": 1605,
      "ship": 1606,
      "roar": 1607,
      "ears": 1608,
      "ches": 1609,
      "bush": 1610,
      "nothing": 1611,
      "add": 1612,
      "stars": 1613,
      "shook": 1614,
      "mail": 1615,
      "trou": 1616,
      "touched": 1617,
      "itting": 1618,
      "smell": 1619,
      "cal": 1620,
      "past": 1621,
      "busy": 1622,
      "ben": 1623,
      "myster": 1624,
      "covered": 1625,
      "Their": 1626,
      "rocks": 1627,
      "sang": 1628,
      "nee": 1629,
      "exciting": 1630,
      "leg": 1631,
      "runs": 1632,
      "path": 1633,
      "throw": 1634,
      "ize": 1635,
      "ntain": 1636,
      "cir": 1637,
      "gged": 1638,
      "pil": 1639,
      "œI": 1640,
      "days": 1641,
      "smiling": 1642,
      "peace": 1643,
      "Together": 1644,
      "neighbor": 1645,
      "net": 1646,
      "noises": 1647,
      "button": 1648,
      "cozy": 1649,
      "Jake": 1650,
      "sick": 1651,
      "att": 1652,
      "ughter": 1653,
      "With": 1654,
      "shapes": 1655,
      "Ted": 1656,
      "Where": 1657,
      "singing": 1658,
      "present": 1659,
      "creature": 1660,
      "holding": 1661,
      "eas": 1662,
      "tun": 1663,
      "forget": 1664,
      "watching": 1665,
      "swimming": 1666,
      "tasted": 1667,
      "ier": 1668,
      "oom": 1669,
      "pudd": 1670,
      "tur": 1671,
      "inte": 1672,
      "feels": 1673,
      "resting": 1674,
      "irt": 1675,
      "neck": 1676,
      "amp": 1677,
      "itten": 1678,
      "takes": 1679,
      "branch": 1680,
      "fit": 1681,
      "hu": 1682,
      "war": 1683,
      "gest": 1684,
      "drink": 1685,
      "nic": 1686,
      "cute": 1687,
      "horse": 1688,
      "journey": 1689,
      "log": 1690,
      "ect": 1691,
      "sunshine": 1692,
      "turns": 1693,
      "monkey": 1694,
      "pointed": 1695,
      "eag": 1696,
      "sco": 1697,
      "wand": 1698,
      "thday": 1699,
      "plane": 1700,
      "live": 1701,
      "shar": 1702,
      "wondered": 1703,
      "danced": 1704,
      "patient": 1705,
      "daughter": 1706,
      "huge": 1707,
      "nest": 1708,
      "ness": 1709,
      "Good": 1710,
      "Of": 1711,
      "jar": 1712,
      "lar": 1713,
      "pig": 1714,
      "letter": 1715,
      "imag": 1716,
      "nose": 1717,
      "act": 1718,
      "driver": 1719,
      "sitting": 1720,
      "body": 1721,
      "return": 1722,
      "juice": 1723,
      "pract": 1724,
      "bought": 1725,
      "ipped": 1726,
      "idge": 1727,
      "Hey": 1728,
      "shes": 1729,
      "hello": 1730,
      "grand": 1731,
      "epend": 1732,
      "hugs": 1733,
      "comes": 1734,
      "clouds": 1735,
      "spin": 1736,
      "craw": 1737,
      "gift": 1738,
      "chas": 1739,
      "ey": 1740,
      "tu": 1741,
      "card": 1742,
      "bottle": 1743,
      "band": 1744,
      "fence": 1745,
      "onto": 1746,
      "organ": 1747,
      "joke": 1748,
      "anyone": 1749,
      "accidentally": 1750,
      "Alice": 1751,
      "sack": 1752,
      "raid": 1753,
      "birthday": 1754,
      "izz": 1755,
      "village": 1756,
      "gigg": 1757,
      "cele": 1758,
      "robot": 1759,
      "seek": 1760,
      "dest": 1761,
      "sounds": 1762,
      "arms": 1763,
      "afraid": 1764,
      "ittens": 1765,
      "Johnny": 1766,
      "mach": 1767,
      "spid": 1768,
      "forever": 1769,
      "lovely": 1770,
      "interesting": 1771,
      "ee": 1772,
      "instead": 1773,
      "ont": 1774,
      "bel": 1775,
      "bubb": 1776,
      "colle": 1777,
      "front": 1778,
      "rolled": 1779,
      "sli": 1780,
      "which": 1781,
      "snowman": 1782,
      "minut": 1783,
      "street": 1784,
      "fing": 1785,
      "gy": 1786,
      "lucky": 1787,
      "rank": 1788,
      "spoon": 1789,
      "purple": 1790,
      "bench": 1791,
      "ced": 1792,
      "thin": 1793,
      "stories": 1794,
      "building": 1795,
      "Kitty": 1796,
      "mad": 1797,
      "suc": 1798,
      "wra": 1799,
      "wash": 1800,
      "shr": 1801,
      "pool": 1802,
      "bled": 1803,
      "blem": 1804,
      "celebr": 1805,
      "How": 1806,
      "Re": 1807,
      "eventually": 1808,
      "gen": 1809,
      "sug": 1810,
      "meet": 1811,
      "colour": 1812,
      "problem": 1813,
      "hop": 1814,
      "bru": 1815,
      "ladder": 1816,
      "search": 1817,
      "circle": 1818,
      "El": 1819,
      "hit": 1820,
      "num": 1821,
      "rubb": 1822,
      "gather": 1823,
      "fold": 1824,
      "shining": 1825,
      "loves": 1826,
      "grab": 1827,
      "spicy": 1828,
      "picnic": 1829,
      "spotted": 1830,
      "comfortable": 1831,
      "den": 1832,
      "cean": 1833,
      "uni": 1834,
      "spent": 1835,
      "whole": 1836,
      "ocean": 1837,
      "sol": 1838,
      "shy": 1839,
      "clever": 1840,
      "person": 1841,
      "honey": 1842,
      "kick": 1843,
      "lay": 1844,
      "wearing": 1845,
      "tasty": 1846,
      "splash": 1847,
      "searched": 1848,
      "answer": 1849,
      "smelled": 1850,
      "ress": 1851,
      "talked": 1852,
      "healthy": 1853,
      "crayons": 1854,
      "Sus": 1855,
      "rat": 1856,
      "stair": 1857,
      "asleep": 1858,
      "smoo": 1859,
      "finish": 1860,
      "places": 1861,
      "sandw": 1862,
      "Peter": 1863,
      "later": 1864,
      "pan": 1865,
      "talking": 1866,
      "ail": 1867,
      "inv": 1868,
      "vel": 1869,
      "shout": 1870,
      "corner": 1871,
      "large": 1872,
      "Little": 1873,
      "Pa": 1874,
      "ian": 1875,
      "nut": 1876,
      "wild": 1877,
      "storm": 1878,
      "miss": 1879,
      "remind": 1880,
      "confused": 1881,
      "fruit": 1882,
      "kitten": 1883,
      "hope": 1884,
      "smooth": 1885,
      "Pet": 1886,
      "cer": 1887,
      "apples": 1888,
      "ned": 1889,
      "helpful": 1890,
      "farm": 1891,
      "bugs": 1892,
      "Sometimes": 1893,
      "ese": 1894,
      "feather": 1895,
      "waiting": 1896,
      "screamed": 1897,
      "oin": 1898,
      "oven": 1899,
      "wide": 1900,
      "string": 1901,
      "shell": 1902,
      "embar": 1903,
      "write": 1904,
      "embarr": 1905,
      "egg": 1906,
      "mil": 1907,
      "respec": 1908,
      "step": 1909,
      "cow": 1910,
      "berries": 1911,
      "blew": 1912,
      "rocket": 1913,
      "puddle": 1914,
      "spider": 1915,
      "era": 1916,
      "teach": 1917,
      "appoin": 1918,
      "part": 1919,
      "zoom": 1920,
      "chest": 1921,
      "disappoin": 1922,
      "prot": 1923,
      "whenever": 1924,
      "mysterious": 1925,
      "Susie": 1926,
      "pile": 1927,
      "inc": 1928,
      "word": 1929,
      "While": 1930,
      "gently": 1931,
      "Pete": 1932,
      "Even": 1933,
      "ast": 1934,
      "cks": 1935,
      "ased": 1936,
      "forward": 1937,
      "cop": 1938,
      "ancy": 1939,
      "ducks": 1940,
      "matter": 1941,
      "furry": 1942,
      "embarrass": 1943,
      "tro": 1944,
      "lemon": 1945,
      "spe": 1946,
      "last": 1947,
      "group": 1948,
      "puzz": 1949,
      "ugg": 1950,
      "coat": 1951,
      "deter": 1952,
      "impress": 1953,
      "couch": 1954,
      "breath": 1955,
      "os": 1956,
      "wave": 1957,
      "ult": 1958,
      "carried": 1959,
      "feet": 1960,
      "shirt": 1961,
      "foot": 1962,
      "snake": 1963,
      "fixed": 1964,
      "trouble": 1965,
      "stairs": 1966,
      "test": 1967,
      "cheese": 1968,
      "drive": 1969,
      "hidden": 1970,
      "powerful": 1971,
      "eager": 1972,
      "swe": 1973,
      "corn": 1974,
      "Are": 1975,
      "Mittens": 1976,
      "adow": 1977,
      "mir": 1978,
      "pizz": 1979,
      "orm": 1980,
      "yelled": 1981,
      "peaceful": 1982,
      "disappointed": 1983,
      "Ch": 1984,
      "Mar": 1985,
      "hang": 1986,
      "pill": 1987,
      "spread": 1988,
      "taste": 1989,
      "cheer": 1990,
      "wheel": 1991,
      "respect": 1992,
      "fig": 1993,
      "gas": 1994,
      "meadow": 1995,
      "Bobby": 1996,
      "painting": 1997,
      "standing": 1998,
      "promise": 1999,
      "embarrassed": 2000,
      "Fred": 2001,
      "fli": 2002,
      "fancy": 2003,
      "pty": 2004,
      "cage": 2005,
      "empty": 2006,
      "trip": 2007,
      "polite": 2008,
      "calm": 2009,
      "sharp": 2010,
      "Who": 2011,
      "sour": 2012,
      "isa": 2013,
      "getable": 2014,
      "coura": 2015,
      "sleepy": 2016,
      "Le": 2017,
      "di": 2018,
      "vegetable": 2019,
      "grew": 2020,
      "songs": 2021,
      "Lisa": 2022,
      "vous": 2023,
      "stir": 2024,
      "forgive": 2025,
      "?\".": 2026,
      "Everywhere": 2027,
      "Letâ": 2028,
      "pretended": 2029,
      "dancing": 2030,
      "Bo": 2031,
      "road": 2032,
      "pop": 2033,
      "pizza": 2034,
      "TV": 2035,
      "mummy": 2036,
      "vie": 2037,
      "ending": 2038,
      "spit": 2039,
      "exam": 2040,
      "clear": 2041,
      "ife": 2042,
      "saur": 2043,
      "ird": 2044,
      "hopping": 2045,
      "berry": 2046,
      "ungle": 2047,
      "milk": 2048,
      "blow": 2049,
      "jungle": 2050,
      "ity": 2051,
      "loom": 2052,
      "seat": 2053,
      "motor": 2054,
      "tightly": 2055,
      "machine": 2056,
      "Me": 2057,
      "bread": 2058,
      "hiding": 2059,
      "If": 2060,
      "bers": 2061,
      "res": 2062,
      "stra": 2063,
      "bell": 2064,
      "asha": 2065,
      "pec": 2066,
      "sque": 2067,
      "uce": 2068,
      "shelf": 2069,
      "Ann": 2070,
      "gives": 2071,
      "match": 2072,
      "fil": 2073,
      "tid": 2074,
      "become": 2075,
      "ugly": 2076,
      "rude": 2077,
      "nervous": 2078,
      "mountain": 2079,
      "dirt": 2080,
      "Tweety": 2081,
      "jewel": 2082,
      "vase": 2083,
      "ighed": 2084,
      "shake": 2085,
      "trust": 2086,
      "jumping": 2087,
      "slid": 2088,
      "sparkly": 2089,
      "supp": 2090,
      "mud": 2091,
      "See": 2092,
      "fu": 2093,
      "gara": 2094,
      "mic": 2095,
      "osaur": 2096,
      "playground": 2097,
      "case": 2098,
      "flut": 2099,
      "fighting": 2100,
      "garage": 2101,
      "micro": 2102,
      "hours": 2103,
      "mined": 2104,
      "ual": 2105,
      "oman": 2106,
      "orn": 2107,
      "aser": 2108,
      "rope": 2109,
      "dinosaur": 2110,
      "cookie": 2111,
      "creative": 2112,
      "pri": 2113,
      "woman": 2114,
      "tomor": 2115,
      "chick": 2116,
      "carrot": 2117,
      "sticks": 2118,
      "whistle": 2119,
      "success": 2120,
      "determined": 2121,
      "tomorrow": 2122,
      "dle": 2123,
      "hum": 2124,
      "these": 2125,
      "reg": 2126,
      "Here": 2127,
      "nel": 2128,
      "cape": 2129,
      "usual": 2130,
      "decor": 2131,
      "izzy": 2132,
      "answered": 2133,
      "Teddy": 2134,
      "Stop": 2135,
      "jam": 2136,
      "stret": 2137,
      "asking": 2138,
      "selfish": 2139,
      "known": 2140,
      "chased": 2141,
      "bark": 2142,
      "iddle": 2143,
      "save": 2144,
      "father": 2145,
      "chew": 2146,
      "faces": 2147,
      "knocked": 2148,
      "minutes": 2149,
      "eth": 2150,
      "kin": 2151,
      "fear": 2152,
      "spray": 2153,
      "Today": 2154,
      "easy": 2155,
      "ashamed": 2156,
      "knee": 2157,
      "week": 2158,
      "skipped": 2159,
      "bedroom": 2160,
      "flag": 2161,
      "balance": 2162,
      "pour": 2163,
      "anut": 2164,
      "rich": 2165,
      "weak": 2166,
      "sharing": 2167,
      "drew": 2168,
      "paw": 2169,
      "plants": 2170,
      "barked": 2171,
      "tidy": 2172,
      "lves": 2173,
      "pin": 2174,
      "als": 2175,
      "knowing": 2176,
      "tea": 2177,
      "ignor": 2178,
      "returned": 2179,
      "brush": 2180,
      "fre": 2181,
      "glow": 2182,
      "lace": 2183,
      "police": 2184,
      "excite": 2185,
      "Help": 2186,
      "swan": 2187,
      "tears": 2188,
      "ina": 2189,
      "plant": 2190,
      "gray": 2191,
      "yourself": 2192,
      "hears": 2193,
      "market": 2194,
      "chocol": 2195,
      "landed": 2196,
      "Mrs": 2197,
      "ones": 2198,
      "almost": 2199,
      "itter": 2200,
      "meant": 2201,
      "true": 2202,
      "teeth": 2203,
      "marble": 2204,
      "passed": 2205,
      "giant": 2206,
      "necklace": 2207,
      "excitement": 2208,
      "ban": 2209,
      "line": 2210,
      "middle": 2211,
      "hospit": 2212,
      "goes": 2213,
      "dogs": 2214,
      "wore": 2215,
      "disappeared": 2216,
      "packed": 2217,
      "suit": 2218,
      "giggled": 2219,
      "banan": 2220,
      "Bu": 2221,
      "Ju": 2222,
      "cand": 2223,
      "depend": 2224,
      "plate": 2225,
      "form": 2226,
      "using": 2227,
      "clown": 2228,
      "umpy": 2229,
      "understood": 2230,
      "hospital": 2231,
      "Eventually": 2232,
      "maybe": 2233,
      "tool": 2234,
      "shore": 2235,
      "fluffy": 2236,
      "missed": 2237,
      "whisper": 2238,
      "snacks": 2239,
      "colourful": 2240,
      "chocolate": 2241,
      "Mark": 2242,
      "cy": 2243,
      "towel": 2244,
      "lead": 2245,
      "unusual": 2246,
      "count": 2247,
      "spla": 2248,
      "treats": 2249,
      "bs": 2250,
      "cher": 2251,
      "knight": 2252,
      "pir": 2253,
      "ating": 2254,
      "tells": 2255,
      "Grand": 2256,
      "glue": 2257,
      "kiss": 2258,
      "generous": 2259,
      "cur": 2260,
      "cross": 2261,
      "rid": 2262,
      "tag": 2263,
      "zoo": 2264,
      "wagon": 2265,
      "elly": 2266,
      "feed": 2267,
      "cloth": 2268,
      "taken": 2269,
      "expens": 2270,
      "march": 2271,
      "sailed": 2272,
      "bathroom": 2273,
      "gathered": 2274,
      "figure": 2275,
      "expensive": 2276,
      "Ducky": 2277,
      "Would": 2278,
      "tank": 2279,
      "wagged": 2280,
      "often": 2281,
      "spoil": 2282,
      "happening": 2283,
      "alous": 2284,
      "stuff": 2285,
      "thick": 2286,
      "soar": 2287,
      "onest": 2288,
      "poor": 2289,
      "calling": 2290,
      "thankful": 2291,
      "penny": 2292,
      "jealous": 2293,
      "sandwich": 2294,
      "protect": 2295,
      "Leo": 2296,
      "bby": 2297,
      "cri": 2298,
      "rad": 2299,
      "ert": 2300,
      "illi": 2301,
      "nods": 2302,
      "fork": 2303,
      "terri": 2304,
      "measure": 2305,
      "manag": 2306,
      "worm": 2307,
      "peanut": 2308,
      "frown": 2309,
      "drawing": 2310,
      "pointing": 2311,
      "twirl": 2312,
      "dependable": 2313,
      "ially": 2314,
      "saved": 2315,
      "taught": 2316,
      "leaf": 2317,
      "prince": 2318,
      "cord": 2319,
      "smelly": 2320,
      "pillow": 2321,
      "flies": 2322,
      "End": 2323,
      "Well": 2324,
      "fake": 2325,
      "gust": 2326,
      "mel": 2327,
      "sil": 2328,
      "waves": 2329,
      "lying": 2330,
      "moon": 2331,
      "moving": 2332,
      "keeper": 2333,
      "tunnel": 2334,
      "puzzle": 2335,
      "œThat": 2336,
      "espec": 2337,
      "change": 2338,
      "working": 2339,
      "realised": 2340,
      "ancient": 2341,
      "drum": 2342,
      "neighb": 2343,
      "especially": 2344,
      "Al": 2345,
      "bone": 2346,
      "burn": 2347,
      "cam": 2348,
      "lit": 2349,
      "mark": 2350,
      "sage": 2351,
      "imed": 2352,
      "weal": 2353,
      "gets": 2354,
      "rag": 2355,
      "ular": 2356,
      "collect": 2357,
      "vegetables": 2358,
      "Give": 2359,
      "cre": 2360,
      "gun": 2361,
      "ror": 2362,
      "sight": 2363,
      "tick": 2364,
      "lift": 2365,
      "gold": 2366,
      "goat": 2367,
      "ustr": 2368,
      "queen": 2369,
      "messy": 2370,
      "distance": 2371,
      "ga": 2372,
      "honest": 2373,
      "zip": 2374,
      "lazy": 2375,
      "angel": 2376,
      "pair": 2377,
      "check": 2378,
      "content": 2379,
      "walks": 2380,
      "stones": 2381,
      "incred": 2382,
      "Sor": 2383,
      "lid": 2384,
      "harm": 2385,
      "stum": 2386,
      "unk": 2387,
      "ella": 2388,
      "ruined": 2389,
      "stronger": 2390,
      "boring": 2391,
      "sweetie": 2392,
      "Tweetie": 2393,
      "illiant": 2394,
      "grace": 2395,
      "œIt": 2396,
      "reen": 2397,
      "ilt": 2398,
      "orge": 2399,
      "sold": 2400,
      "dol": 2401,
      "rots": 2402,
      "cannot": 2403,
      "pray": 2404,
      "brilliant": 2405,
      "balls": 2406,
      "clay": 2407,
      "obed": 2408,
      "picking": 2409,
      "bored": 2410,
      "pleased": 2411,
      "delight": 2412,
      "splashed": 2413,
      "Ge": 2414,
      "bat": 2415,
      "dish": 2416,
      "drank": 2417,
      "edge": 2418,
      "tory": 2419,
      "Your": 2420,
      "seem": 2421,
      "pee": 2422,
      "bble": 2423,
      "frustr": 2424,
      "obedient": 2425,
      "aking": 2426,
      "hi": 2427,
      "wip": 2428,
      "yarn": 2429,
      "hero": 2430,
      "boss": 2431,
      "pear": 2432,
      "deer": 2433,
      "smaller": 2434,
      "flash": 2435,
      "choose": 2436,
      "questions": 2437,
      "Grandpa": 2438,
      "fic": 2439,
      "kn": 2440,
      "oc": 2441,
      "port": 2442,
      "ud": 2443,
      "erpill": 2444,
      "lope": 2445,
      "cact": 2446,
      "acce": 2447,
      "anged": 2448,
      "caterpill": 2449,
      "tape": 2450,
      "discovered": 2451,
      "trucks": 2452,
      "medic": 2453,
      "mighty": 2454,
      "horn": 2455,
      "circles": 2456,
      "frustrated": 2457,
      "caterpillar": 2458,
      "Mike": 2459,
      "Sandy": 2460,
      "cab": 2461,
      "crown": 2462,
      "tig": 2463,
      "zi": 2464,
      "œWhat": 2465,
      "œYes": 2466,
      "iness": 2467,
      "rela": 2468,
      "seed": 2469,
      "excitedly": 2470,
      "ighted": 2471,
      "enjoying": 2472,
      "desk": 2473,
      "legs": 2474,
      "mirror": 2475,
      "terrible": 2476,
      "managed": 2477,
      "medicine": 2478,
      "relax": 2479,
      "Grace": 2480,
      "Polly": 2481,
      "fla": 2482,
      "sighed": 2483,
      "tie": 2484,
      "tries": 2485,
      "once": 2486,
      "soap": 2487,
      "!\".": 2488,
      "carrots": 2489,
      "illed": 2490,
      "law": 2491,
      "laimed": 2492,
      "exclaimed": 2493,
      "adventur": 2494,
      "painted": 2495,
      "diffic": 2496,
      "crab": 2497,
      "crack": 2498,
      "giving": 2499,
      "delighted": 2500,
      "belonged": 2501,
      "eye": 2502,
      "wealthy": 2503,
      "incredible": 2504,
      "George": 2505,
      "cabin": 2506,
      "Dan": 2507,
      "bull": 2508,
      "eraser": 2509,
      "space": 2510,
      "ured": 2511,
      "puts": 2512,
      "uddy": 2513,
      "bushes": 2514,
      "needs": 2515,
      "safely": 2516,
      "Toby": 2517,
      "organized": 2518,
      "rubbed": 2519,
      "Sorry": 2520,
      "adventurous": 2521,
      "dizzy": 2522,
      "gum": 2523,
      "vi": 2524,
      "vide": 2525,
      "lif": 2526,
      "umsy": 2527,
      "scarf": 2528,
      "ately": 2529,
      "class": 2530,
      "compet": 2531,
      "mistake": 2532,
      "square": 2533,
      "print": 2534,
      "clap": 2535,
      "unique": 2536,
      "camera": 2537,
      "graceful": 2538,
      "difficult": 2539,
      "vice": 2540,
      "grumpy": 2541,
      "jog": 2542,
      "locked": 2543,
      "fridge": 2544,
      "walls": 2545,
      "valu": 2546,
      "crawled": 2547,
      "suggest": 2548,
      "impressed": 2549,
      "Snow": 2550,
      "Will": 2551,
      "zed": 2552,
      "œLetâ": 2553,
      "ination": 2554,
      "enve": 2555,
      "ony": 2556,
      "ature": 2557,
      "boys": 2558,
      "meal": 2559,
      "bridge": 2560,
      "brightly": 2561,
      "design": 2562,
      "coins": 2563,
      "study": 2564,
      "valuable": 2565,
      "Dave": 2566,
      "Rex": 2567,
      "abo": 2568,
      "bitter": 2569,
      "rise": 2570,
      "reli": 2571,
      "already": 2572,
      "bees": 2573,
      "weird": 2574,
      "dead": 2575,
      "cleaned": 2576,
      "phin": 2577,
      "Joey": 2578,
      "dreaming": 2579,
      "turkey": 2580,
      "finger": 2581,
      "Bobo": 2582,
      "dolphin": 2583,
      "above": 2584,
      "bul": 2585,
      "hive": 2586,
      "oat": 2587,
      "rare": 2588,
      "tain": 2589,
      "ants": 2590,
      "tom": 2591,
      "ery": 2592,
      "aroo": 2593,
      "carpet": 2594,
      "inde": 2595,
      "angaroo": 2596,
      "skin": 2597,
      "comple": 2598,
      "phy": 2599,
      "delicate": 2600,
      "bottom": 2601,
      "kissed": 2602,
      "added": 2603,
      "practice": 2604,
      "wrapped": 2605,
      "trophy": 2606,
      "squee": 2607,
      "cactus": 2608,
      "competit": 2609,
      "Bella": 2610,
      "Whe": 2611,
      "bake": 2612,
      "cr": 2613,
      "jack": 2614,
      "kangaroo": 2615,
      "may": 2616,
      "scare": 2617,
      "toug": 2618,
      "load": 2619,
      "mole": 2620,
      "polog": 2621,
      "guil": 2622,
      "mixed": 2623,
      "straw": 2624,
      "successful": 2625,
      "knife": 2626,
      "envelope": 2627,
      "Red": 2628,
      "apolog": 2629,
      "bur": 2630,
      "gate": 2631,
      "grown": 2632,
      "pal": 2633,
      "refused": 2634,
      "wake": 2635,
      "allow": 2636,
      "sock": 2637,
      "fool": 2638,
      "aced": 2639,
      "leaving": 2640,
      "bubbles": 2641,
      "cheerful": 2642,
      "guilty": 2643,
      "yal": 2644,
      "nod": 2645,
      "rode": 2646,
      "oph": 2647,
      "kinds": 2648,
      "rushed": 2649,
      "sounded": 2650,
      "numbers": 2651,
      "reliable": 2652,
      "By": 2653,
      "Sm": 2654,
      "ipe": 2655,
      "snee": 2656,
      "loyal": 2657,
      "selves": 2658,
      "nosy": 2659,
      "advice": 2660,
      "escape": 2661,
      "sors": 2662,
      "favour": 2663,
      "branches": 2664,
      "reminded": 2665,
      "feathers": 2666,
      "Maria": 2667,
      "fresh": 2668,
      "neighbour": 2669,
      "peeked": 2670,
      "cries": 2671,
      "pup": 2672,
      "toes": 2673,
      "record": 2674,
      "stri": 2675,
      "smo": 2676,
      "note": 2677,
      "wolf": 2678,
      "closet": 2679,
      "skip": 2680,
      "clumsy": 2681,
      "team": 2682,
      "explored": 2683,
      "office": 2684,
      "kindness": 2685,
      "bald": 2686,
      "number": 2687,
      "invited": 2688,
      "tough": 2689,
      "foolish": 2690,
      "favourite": 2691,
      "ti": 2692,
      "ham": 2693,
      "issors": 2694,
      "salad": 2695,
      "lean": 2696,
      "those": 2697,
      "noisy": 2698,
      "chir": 2699,
      "spun": 2700,
      "agree": 2701,
      "decide": 2702,
      "useful": 2703,
      "built": 2704,
      "loudly": 2705,
      "borrow": 2706,
      "chain": 2707,
      "bounce": 2708,
      "belt": 2709,
      "solve": 2710,
      "Bl": 2711,
      "Ne": 2712,
      "Rose": 2713,
      "Soph": 2714,
      "dig": 2715,
      "inal": 2716,
      "resc": 2717,
      "stream": 2718,
      "orig": 2719,
      "host": 2720,
      "dove": 2721,
      "sport": 2722,
      "extra": 2723,
      "coco": 2724,
      "shone": 2725,
      "sunflower": 2726,
      "boxes": 2727,
      "scissors": 2728,
      "Lola": 2729,
      "buttons": 2730,
      "uggled": 2731,
      "courage": 2732,
      "Snowy": 2733,
      "smoke": 2734,
      "original": 2735,
      "Mandy": 2736,
      "dull": 2737,
      "eld": 2738,
      "jelly": 2739,
      "otter": 2740,
      "pay": 2741,
      "wis": 2742,
      "arrow": 2743,
      "ates": 2744,
      "changed": 2745,
      "learning": 2746,
      "offered": 2747,
      "Andy": 2748,
      "famous": 2749,
      "sailor": 2750,
      "attic": 2751,
      "celebrate": 2752,
      "flute": 2753,
      "banana": 2754,
      "pirate": 2755,
      "Smith": 2756,
      "Bet": 2757,
      "oy": 2758,
      "son": 2759,
      "sca": 2760,
      "sell": 2761,
      "hose": 2762,
      "boo": 2763,
      "cart": 2764,
      "opard": 2765,
      "grandpa": 2766,
      "thinking": 2767,
      "Papa": 2768,
      "suggested": 2769,
      "Blue": 2770,
      "Ale": 2771,
      "cone": 2772,
      "leopard": 2773,
      "cell": 2774,
      "uring": 2775,
      "moder": 2776,
      "trump": 2777,
      "showing": 2778,
      "lights": 2779,
      "fruits": 2780,
      "slipped": 2781,
      "searching": 2782,
      "shells": 2783,
      "gasped": 2784,
      "jacket": 2785,
      "cocoa": 2786,
      "Alex": 2787,
      "trumpet": 2788,
      "Flo": 2789,
      "athe": 2790,
      "men": 2791,
      "rh": 2792,
      "wire": 2793,
      "birdie": 2794,
      "ief": 2795,
      "handle": 2796,
      "bags": 2797,
      "guess": 2798,
      "warned": 2799,
      "modern": 2800,
      "Kate": 2801,
      "cing": 2802,
      "fright": 2803,
      "pit": 2804,
      "wers": 2805,
      "yell": 2806,
      "eng": 2807,
      "lose": 2808,
      "beet": 2809,
      "hats": 2810,
      "adm": 2811,
      "playful": 2812,
      "careless": 2813,
      "thoughtful": 2814,
      "istent": 2815,
      "proudly": 2816,
      "comb": 2817,
      "hurts": 2818,
      "screen": 2819,
      "serve": 2820,
      "gling": 2821,
      "breakfast": 2822,
      "sugar": 2823,
      "speed": 2824,
      "regular": 2825,
      "harmless": 2826,
      "bossy": 2827,
      "flashlight": 2828,
      "octop": 2829,
      "tiger": 2830,
      "lifted": 2831,
      "elder": 2832,
      "ghost": 2833,
      "order": 2834,
      "noon": 2835,
      "vest": 2836,
      "happiness": 2837,
      "post": 2838,
      "nail": 2839,
      "knows": 2840,
      "obj": 2841,
      "picks": 2842,
      "hurry": 2843,
      "saying": 2844,
      "serious": 2845,
      "chase": 2846,
      "struc": 2847,
      "question": 2848,
      "stumbled": 2849,
      "batter": 2850,
      "zipper": 2851,
      "Whenever": 2852,
      "octopus": 2853,
      "St": 2854,
      "tti": 2855,
      "wro": 2856,
      "yo": 2857,
      "zzy": 2858,
      "hetti": 2859,
      "leash": 2860,
      "forth": 2861,
      "gem": 2862,
      "spag": 2863,
      "yours": 2864,
      "axe": 2865,
      "map": 2866,
      "sorts": 2867,
      "replace": 2868,
      "cooking": 2869,
      "turtle": 2870,
      "wrote": 2871,
      "spaghetti": 2872,
      "tummy": 2873,
      "erce": 2874,
      "erable": 2875,
      "island": 2876,
      "alert": 2877,
      "hood": 2878,
      "chim": 2879,
      "raced": 2880,
      "pebble": 2881,
      "useum": 2882,
      "pale": 2883,
      "handed": 2884,
      "beauty": 2885,
      "fierce": 2886,
      "telling": 2887,
      "miserable": 2888,
      "stranger": 2889,
      "doesn": 2890,
      "harder": 2891,
      "stubb": 2892,
      "Remy": 2893,
      "nuts": 2894,
      "candle": 2895,
      "hipp": 2896,
      "elderly": 2897,
      "Brown": 2898,
      "Cl": 2899,
      "aunt": 2900,
      "bin": 2901,
      "city": 2902,
      "fou": 2903,
      "museum": 2904,
      "raven": 2905,
      "ugged": 2906,
      "movie": 2907,
      "shadow": 2908,
      "tru": 2909,
      "cleaning": 2910,
      "chose": 2911,
      "patch": 2912,
      "prize": 2913,
      "chicken": 2914,
      "wiped": 2915,
      "hippo": 2916,
      "fountain": 2917,
      "camp": 2918,
      "est": 2919,
      "kitty": 2920,
      "lli": 2921,
      "norm": 2922,
      "wha": 2923,
      "zard": 2924,
      "lolli": 2925,
      "rice": 2926,
      "licked": 2927,
      "lizard": 2928,
      "moms": 2929,
      "roof": 2930,
      "ended": 2931,
      "themselves": 2932,
      "tele": 2933,
      "trains": 2934,
      "persistent": 2935,
      "carrying": 2936,
      "bubble": 2937,
      "collec": 2938,
      "ignorant": 2939,
      "frightened": 2940,
      "stubborn": 2941,
      "Baby": 2942,
      "aur": 2943,
      "cudd": 2944,
      "ges": 2945,
      "lly": 2946,
      "sudden": 2947,
      "van": 2948,
      "reinde": 2949,
      "washed": 2950,
      "uncomfortable": 2951,
      "unknown": 2952,
      "goose": 2953,
      "spir": 2954,
      "shut": 2955,
      "helps": 2956,
      "stove": 2957,
      "shape": 2958,
      "maze": 2959,
      "donâ": 2960,
      "restaur": 2961,
      "film": 2962,
      "microphone": 2963,
      "cricket": 2964,
      "Nemo": 2965,
      "admired": 2966,
      "chimney": 2967,
      "restaurant": 2968,
      "bloom": 2969,
      "pump": 2970,
      "rend": 2971,
      "enorm": 2972,
      "thief": 2973,
      "placed": 2974,
      "friendship": 2975,
      "shows": 2976,
      "spoke": 2977,
      "snif": 2978,
      "whist": 2979,
      "mixer": 2980,
      "imagined": 2981,
      "normal": 2982,
      "reindeer": 2983,
      "enormous": 2984,
      "tied": 2985,
      "tire": 2986,
      "loe": 2987,
      "bet": 2988,
      "upid": 2989,
      "shroom": 2990,
      "modest": 2991,
      "laun": 2992,
      "pepper": 2993,
      "houses": 2994,
      "beak": 2995,
      "surrend": 2996,
      "disgust": 2997,
      "butterflies": 2998,
      "dreams": 2999,
      "dreamed": 3000,
      "metal": 3001,
      "guard": 3002,
      "purse": 3003,
      "gym": 3004,
      "Ste": 3005,
      "ahead": 3006,
      "cco": 3007,
      "pas": 3008,
      "ines": 3009,
      "arian": 3010,
      "ext": 3011,
      "illa": 3012,
      "cap": 3013,
      "trash": 3014,
      "parade": 3015,
      "rolling": 3016,
      "package": 3017,
      "cupboard": 3018,
      "shopkeeper": 3019,
      "counted": 3020,
      "swee": 3021,
      "viol": 3022,
      "beetle": 3023,
      "whale": 3024,
      "spirit": 3025,
      "Char": 3026,
      "Next": 3027,
      "Tony": 3028,
      "gn": 3029,
      "shad": 3030,
      "intell": 3031,
      "stat": 3032,
      "stupid": 3033,
      "cane": 3034,
      "pota": 3035,
      "ssed": 3036,
      "against": 3037,
      "quite": 3038,
      "screw": 3039,
      "balloons": 3040,
      "ggy": 3041,
      "gging": 3042,
      "juicy": 3043,
      "given": 3044,
      "counting": 3045,
      "crayon": 3046,
      "whispered": 3047,
      "laundry": 3048,
      "violin": 3049,
      "intellig": 3050,
      "cil": 3051,
      "hay": 3052,
      "env": 3053,
      "iron": 3054,
      "una": 3055,
      "biggest": 3056,
      "tered": 3057,
      "helmet": 3058,
      "peek": 3059,
      "sadly": 3060,
      "joined": 3061,
      "couldnâ": 3062,
      "shocked": 3063,
      "louder": 3064,
      "rules": 3065,
      "discover": 3066,
      "glass": 3067,
      "pencil": 3068,
      "harsh": 3069,
      "wander": 3070,
      "fingers": 3071,
      "kicked": 3072,
      "eggs": 3073,
      "create": 3074,
      "James": 3075,
      "Ro": 3076,
      "Ros": 3077,
      "ator": 3078,
      "bent": 3079,
      "four": 3080,
      "hun": 3081,
      "mama": 3082,
      "nur": 3083,
      "nature": 3084,
      "rem": 3085,
      "rece": 3086,
      "reco": 3087,
      "ordin": 3088,
      "thirst": 3089,
      "separ": 3090,
      "roy": 3091,
      "spilled": 3092,
      "earth": 3093,
      "learnt": 3094,
      "Everything": 3095,
      "fine": 3096,
      "sparkled": 3097,
      "mushroom": 3098,
      "pastel": 3099,
      "destroy": 3100,
      "popcorn": 3101,
      "complete": 3102,
      "oyster": 3103,
      "scale": 3104,
      "statue": 3105,
      "intelligent": 3106,
      "Rosie": 3107,
      "ordinary": 3108,
      "Ho": 3109,
      "Kim": 3110,
      "Tr": 3111,
      "cro": 3112,
      "frag": 3113,
      "theart": 3114,
      "rec": 3115,
      "repe": 3116,
      "itâ": 3117,
      "ingred": 3118,
      "aled": 3119,
      "station": 3120,
      "vet": 3121,
      "libr": 3122,
      "hook": 3123,
      "ages": 3124,
      "independ": 3125,
      "ummer": 3126,
      "jolly": 3127,
      "shaking": 3128,
      "listening": 3129,
      "laughs": 3130,
      "missing": 3131,
      "growing": 3132,
      "roared": 3133,
      "mailbox": 3134,
      "pilot": 3135,
      "organize": 3136,
      "competitive": 3137,
      "pumpkin": 3138,
      "sweetheart": 3139,
      "remain": 3140,
      "thirsty": 3141,
      "ingredient": 3142,
      "Buddy": 3143,
      "Car": 3144,
      "Cat": 3145,
      "Rac": 3146,
      "Yay": 3147,
      "bump": 3148,
      "jug": 3149,
      "witch": 3150,
      "ya": 3151,
      "sofa": 3152,
      "uper": 3153,
      "hoop": 3154,
      "stared": 3155,
      "compass": 3156,
      "impro": 3157,
      "colours": 3158,
      "falls": 3159,
      "pushing": 3160,
      "troubled": 3161,
      "twirled": 3162,
      "disgusting": 3163,
      "recogn": 3164,
      "Rachel": 3165,
      "dive": 3166,
      "iver": 3167,
      "ubby": 3168,
      "itself": 3169,
      "sauce": 3170,
      "beam": 3171,
      "attra": 3172,
      "chubby": 3173,
      "eca": 3174,
      "pole": 3175,
      "tem": 3176,
      "reading": 3177,
      "Thanks": 3178,
      "painter": 3179,
      "frame": 3180,
      "guin": 3181,
      "point": 3182,
      "penguin": 3183,
      "twig": 3184,
      "scope": 3185,
      "spinning": 3186,
      "jokes": 3187,
      "Chloe": 3188,
      "tools": 3189,
      "Steve": 3190,
      "ingredients": 3191,
      "Rob": 3192,
      "fed": 3193,
      "lim": 3194,
      "lamp": 3195,
      "pho": 3196,
      "wing": 3197,
      "yer": 3198,
      "yet": 3199,
      "ino": 3200,
      "secon": 3201,
      "lives": 3202,
      "early": 3203,
      "nicely": 3204,
      "perform": 3205,
      "ctive": 3206,
      "cush": 3207,
      "drawer": 3208,
      "travel": 3209,
      "barber": 3210,
      "charm": 3211,
      "tub": 3212,
      "wrap": 3213,
      "pants": 3214,
      "Paul": 3215,
      "view": 3216,
      "nurse": 3217,
      "yawn": 3218,
      "photo": 3219,
      "Bear": 3220,
      "Un": 3221,
      "ither": 3222,
      "sses": 3223,
      "sword": 3224,
      "reve": 3225,
      "enth": 3226,
      "ison": 3227,
      "amond": 3228,
      "asses": 3229,
      "notice": 3230,
      "meas": 3231,
      "memor": 3232,
      "flex": 3233,
      "impat": 3234,
      "rub": 3235,
      "afternoon": 3236,
      "closely": 3237,
      "folder": 3238,
      "mission": 3239,
      "steps": 3240,
      "diamond": 3241,
      "spoiled": 3242,
      "frowned": 3243,
      "silver": 3244,
      "lawyer": 3245,
      "Sophie": 3246,
      "fragile": 3247,
      "independent": 3248,
      "charming": 3249,
      "Is": 3250,
      "base": 3251,
      "gie": 3252,
      "ience": 3253,
      "jet": 3254,
      "knot": 3255,
      "tear": 3256,
      "tion": 3257,
      "anx": 3258,
      "toma": 3259,
      "orilla": 3260,
      "cel": 3261,
      "admi": 3262,
      "hadn": 3263,
      "fort": 3264,
      "tern": 3265,
      "fac": 3266,
      "finding": 3267,
      "cats": 3268,
      "complain": 3269,
      "needle": 3270,
      "shoe": 3271,
      "scrat": 3272,
      "hairy": 3273,
      "ations": 3274,
      "visited": 3275,
      "treasures": 3276,
      "distant": 3277,
      "practiced": 3278,
      "chasing": 3279,
      "fuel": 3280,
      "decorate": 3281,
      "seeds": 3282,
      "allowed": 3283,
      "compassion": 3284,
      "enthus": 3285,
      "impatient": 3286,
      "Beca": 3287,
      "Iâ": 3288,
      "aid": 3289,
      "cran": 3290,
      "mild": 3291,
      "scat": 3292,
      "size": 3293,
      "vend": 3294,
      "toil": 3295,
      "ener": 3296,
      "bol": 3297,
      "cards": 3298,
      "spring": 3299,
      "ills": 3300,
      "shield": 3301,
      "shiver": 3302,
      "comet": 3303,
      "trunk": 3304,
      "sleeping": 3305,
      "desser": 3306,
      "giggle": 3307,
      "stretch": 3308,
      "poured": 3309,
      "passport": 3310,
      "envious": 3311,
      "attractive": 3312,
      "flexible": 3313,
      "admire": 3314,
      "Because": 3315,
      "toilet": 3316,
      "Ow": 3317,
      "Sad": 3318,
      "avo": 3319,
      "gorilla": 3320,
      "sne": 3321,
      "summer": 3322,
      "task": 3323,
      "œYou": 3324,
      "towers": 3325,
      "half": 3326,
      "behave": 3327,
      "beep": 3328,
      "wever": 3329,
      "robe": 3330,
      "chan": 3331,
      "spend": 3332,
      "starting": 3333,
      "ucked": 3334,
      "bbles": 3335,
      "anywhere": 3336,
      "exper": 3337,
      "cheap": 3338,
      "doors": 3339,
      "steal": 3340,
      "stops": 3341,
      "driving": 3342,
      "windows": 3343,
      "glasses": 3344,
      "pattern": 3345,
      "split": 3346,
      "Before": 3347,
      "creatures": 3348,
      "shrimp": 3349,
      "Ella": 3350,
      "humble": 3351,
      "stretched": 3352,
      "riding": 3353,
      "œItâ": 3354,
      "anxious": 3355,
      "vendor": 3356,
      "dessert": 3357,
      "Lilly": 3358,
      "aked": 3359,
      "super": 3360,
      "vine": 3361,
      "theater": 3362,
      "ince": 3363,
      "erc": 3364,
      "erry": 3365,
      "arg": 3366,
      "sau": 3367,
      "ley": 3368,
      "ween": 3369,
      "short": 3370,
      "indy": 3371,
      "starts": 3372,
      "older": 3373,
      "angle": 3374,
      "quar": 3375,
      "papers": 3376,
      "comm": 3377,
      "means": 3378,
      "marched": 3379,
      "crazy": 3380,
      "pretending": 3381,
      "trick": 3382,
      "football": 3383,
      "filthy": 3384,
      "rescue": 3385,
      "engine": 3386,
      "Frank": 3387,
      "Or": 3388,
      "Su": 3389,
      "dar": 3390,
      "zer": 3391,
      "isn": 3392,
      "iches": 3393,
      "poem": 3394,
      "nowhere": 3395,
      "clock": 3396,
      "clu": 3397,
      "apprec": 3398,
      "shouldn": 3399,
      "cryst": 3400,
      "sticker": 3401,
      "flour": 3402,
      "sym": 3403,
      "country": 3404,
      "bounced": 3405,
      "surrender": 3406,
      "Charlie": 3407,
      "shade": 3408,
      "factory": 3409,
      "crane": 3410,
      "appreci": 3411,
      "glove": 3412,
      "mill": 3413,
      "thunder": 3414,
      "verse": 3415,
      "ckey": 3416,
      "weather": 3417,
      "hockey": 3418,
      "somewhere": 3419,
      "reef": 3420,
      "sunset": 3421,
      "badly": 3422,
      "dishes": 3423,
      "snuggled": 3424,
      "lightning": 3425,
      "polish": 3426,
      "crawl": 3427,
      "sandwiches": 3428,
      "human": 3429,
      "curtain": 3430,
      "Clara": 3431,
      "Abig": 3432,
      "Jerry": 3433,
      "cli": 3434,
      "cree": 3435,
      "dug": 3436,
      "fan": 3437,
      "ffin": 3438,
      "nation": 3439,
      "scold": 3440,
      "€“": 3441,
      "goal": 3442,
      "spell": 3443,
      "exerc": 3444,
      "umbre": 3445,
      "popul": 3446,
      "grin": 3447,
      "iest": 3448,
      "swinging": 3449,
      "stickers": 3450,
      "brothers": 3451,
      "further": 3452,
      "kayak": 3453,
      "muffin": 3454,
      "napkin": 3455,
      "Annie": 3456,
      "microscope": 3457,
      "soldier": 3458,
      "wishes": 3459,
      "lollipop": 3460,
      "hunter": 3461,
      "Abigail": 3462,
      "popular": 3463,
      "Luna": 3464,
      "Sp": 3465,
      "bri": 3466,
      "gain": 3467,
      "gloom": 3468,
      "hic": 3469,
      "lla": 3470,
      "zor": 3471,
      "€.": 3472,
      "inarian": 3473,
      "washer": 3474,
      "These": 3475,
      "illie": 3476,
      "stic": 3477,
      "veter": 3478,
      "vehic": 3479,
      "holid": 3480,
      "rose": 3481,
      "enter": 3482,
      "mechan": 3483,
      "poss": 3484,
      "parent": 3485,
      "drawings": 3486,
      "Jenna": 3487,
      "clapping": 3488,
      "climbing": 3489,
      "gifted": 3490,
      "minute": 3491,
      "examine": 3492,
      "oats": 3493,
      "Bye": 3494,
      "hammer": 3495,
      "boots": 3496,
      "object": 3497,
      "truth": 3498,
      "celery": 3499,
      "symbol": 3500,
      "umbrella": 3501,
      "veterinarian": 3502,
      "holiday": 3503,
      "mechanic": 3504,
      "'.": 3505,
      "Did": 3506,
      "Mag": 3507,
      "Milly": 3508,
      "awe": 3509,
      "fat": 3510,
      "ging": 3511,
      "luck": 3512,
      "mes": 3513,
      "reward": 3514,
      "encoura": 3515,
      "sal": 3516,
      "ado": 3517,
      "forgave": 3518,
      "razor": 3519,
      "cob": 3520,
      "Josh": 3521,
      "squash": 3522,
      "lions": 3523,
      "knock": 3524,
      "harbor": 3525,
      "cardboard": 3526,
      "ceros": 3527,
      "Freddy": 3528,
      "fearful": 3529,
      "cherry": 3530,
      "œThatâ": 3531,
      "dishwasher": 3532,
      "leaned": 3533,
      "rhino": 3534,
      "gloomy": 3535,
      "rhinoceros": 3536,
      "aff": 3537,
      "fant": 3538,
      "five": 3539,
      "pted": 3540,
      "send": 3541,
      "inking": 3542,
      "iling": 3543,
      "keys": 3544,
      "sheep": 3545,
      "igloo": 3546,
      "lia": 3547,
      "names": 3548,
      "achie": 3549,
      "anyway": 3550,
      "switch": 3551,
      "raining": 3552,
      "display": 3553,
      "brighter": 3554,
      "boats": 3555,
      "balanc": 3556,
      "deliver": 3557,
      "prepare": 3558,
      "dancer": 3559,
      "wheat": 3560,
      "mule": 3561,
      "celebrated": 3562,
      "astic": 3563,
      "impressive": 3564,
      "resist": 3565,
      "cabinet": 3566,
      "classroom": 3567,
      "creek": 3568,
      "possible": 3569,
      "barn": 3570,
      "io": 3571,
      "ipping": 3572,
      "mas": 3573,
      "mask": 3574,
      "inked": 3575,
      "resp": 3576,
      "repair": 3577,
      "ense": 3578,
      "stack": 3579,
      "ador": 3580,
      "ents": 3581,
      "gear": 3582,
      "meow": 3583,
      "hedge": 3584,
      "putting": 3585,
      "didnâ": 3586,
      "offer": 3587,
      "brace": 3588,
      "shoo": 3589,
      "trem": 3590,
      "trap": 3591,
      "zebra": 3592,
      "triangle": 3593,
      "knob": 3594,
      "lively": 3595,
      "tutor": 3596,
      "bandage": 3597,
      "motorcy": 3598,
      "between": 3599,
      "motorcycle": 3600,
      "Cindy": 3601,
      "Jess": 3602,
      "az": 3603,
      "ium": 3604,
      "kne": 3605,
      "oak": 3606,
      "rug": 3607,
      "sink": 3608,
      "toast": 3609,
      "onion": 3610,
      "saf": 3611,
      "thum": 3612,
      "cereal": 3613,
      "veil": 3614,
      "reeze": 3615,
      "sunrise": 3616,
      "trade": 3617,
      "iastic": 3618,
      "chess": 3619,
      "evening": 3620,
      "fishing": 3621,
      "magnet": 3622,
      "magaz": 3623,
      "drop": 3624,
      "castles": 3625,
      "thanks": 3626,
      "avail": 3627,
      "ngth": 3628,
      "sisted": 3629,
      "sub": 3630,
      "strength": 3631,
      "bouncing": 3632,
      "mystery": 3633,
      "shark": 3634,
      "letters": 3635,
      "imagination": 3636,
      "respectful": 3637,
      "chickens": 3638,
      "radio": 3639,
      "ticket": 3640,
      "video": 3641,
      "library": 3642,
      "enthusiastic": 3643,
      "energy": 3644,
      "quarrel": 3645,
      "adorable": 3646,
      "bracelet": 3647,
      "Bill": 3648,
      "Lul": 3649,
      "por": 3650,
      "pun": 3651,
      "sla": 3652,
      "suff": 3653,
      "hall": 3654,
      "thread": 3655,
      "ceed": 3656,
      "weep": 3657,
      "player": 3658,
      "chance": 3659,
      "coll": 3660,
      "helpless": 3661,
      "pow": 3662,
      "blinked": 3663,
      "flame": 3664,
      "softly": 3665,
      "muscle": 3666,
      "bikes": 3667,
      "danger": 3668,
      "writing": 3669,
      "distur": 3670,
      "warning": 3671,
      "eagerly": 3672,
      "stirred": 3673,
      "ucet": 3674,
      "accept": 3675,
      "potato": 3676,
      "repeat": 3677,
      "compassionate": 3678,
      "magazine": 3679,
      "available": 3680,
      "Lulu": 3681,
      "Fro": 3682,
      "apr": 3683,
      "crow": 3684,
      "furn": 3685,
      "gs": 3686,
      "pian": 3687,
      "pipe": 3688,
      "iture": 3689,
      "arry": 3690,
      "neat": 3691,
      "ceiling": 3692,
      "ribb": 3693,
      "backpack": 3694,
      "oped": 3695,
      "bbie": 3696,
      "fireplace": 3697,
      "cube": 3698,
      "amazem": 3699,
      "holds": 3700,
      "throwing": 3701,
      "scoo": 3702,
      "imagine": 3703,
      "shrugged": 3704,
      "hoping": 3705,
      "shouts": 3706,
      "crash": 3707,
      "apologized": 3708,
      "cushion": 3709,
      "vehicle": 3710,
      "collar": 3711,
      "furniture": 3712,
      "piano": 3713,
      "amazement": 3714,
      "Hen": 3715,
      "Have": 3716,
      "Ma": 3717,
      "May": 3718,
      "fas": 3719,
      "mand": 3720,
      "sle": 3721,
      "vroom": 3722,
      "yach": 3723,
      "œLook": 3724,
      "request": 3725,
      "lip": 3726,
      "holes": 3727,
      "cod": 3728,
      "cano": 3729,
      "faucet": 3730,
      "sunglasses": 3731,
      "tray": 3732,
      "skipping": 3733,
      "shoulder": 3734,
      "rested": 3735,
      "airport": 3736,
      "cooler": 3737,
      "created": 3738,
      "armchair": 3739,
      "chamber": 3740,
      "tripped": 3741,
      "breaks": 3742,
      "beef": 3743,
      "fields": 3744,
      "swamp": 3745,
      "counter": 3746,
      "pige": 3747,
      "splashing": 3748,
      "slides": 3749,
      "Danny": 3750,
      "palace": 3751,
      "separate": 3752,
      "crocod": 3753,
      "Henry": 3754,
      "fasc": 3755,
      "yacht": 3756,
      "Bunny": 3757,
      "Tina": 3758,
      "Whis": 3759,
      "breeze": 3760,
      "dom": 3761,
      "either": 3762,
      "pand": 3763,
      "ping": 3764,
      "waste": 3765,
      "alarm": 3766,
      "sting": 3767,
      "stage": 3768,
      "stamp": 3769,
      "ected": 3770,
      "deaf": 3771,
      "olcano": 3772,
      "skills": 3773,
      "comput": 3774,
      "surround": 3775,
      "appro": 3776,
      "bookcase": 3777,
      "tress": 3778,
      "mistakes": 3779,
      "petals": 3780,
      "tention": 3781,
      "journ": 3782,
      "succeed": 3783,
      "shrink": 3784,
      "shouting": 3785,
      "blowing": 3786,
      "stuffed": 3787,
      "uded": 3788,
      "accepted": 3789,
      "telephone": 3790,
      "ccoli": 3791,
      "improve": 3792,
      "crystal": 3793,
      "dough": 3794,
      "ef": 3795,
      "lend": 3796,
      "si": 3797,
      "tip": 3798,
      "heli": 3799,
      "bey": 3800,
      "bean": 3801,
      "attention": 3802,
      "unpack": 3803,
      "fortun": 3804,
      "happier": 3805,
      "fog": 3806,
      "popped": 3807,
      "paid": 3808,
      "buzz": 3809,
      "broccoli": 3810,
      "pushes": 3811,
      "restless": 3812,
      "torn": 3813,
      "floating": 3814,
      "drops": 3815,
      "marry": 3816,
      "trail": 3817,
      "track": 3818,
      "pressed": 3819,
      "mattress": 3820,
      "twist": 3821,
      "pastry": 3822,
      "tuna": 3823,
      "copter": 3824,
      "speak": 3825,
      "sweater": 3826,
      "yoga": 3827,
      "beamed": 3828,
      "second": 3829,
      "exercise": 3830,
      "grinned": 3831,
      "subway": 3832,
      "powder": 3833,
      "crocodile": 3834,
      "fascin": 3835,
      "helicopter": 3836,
      "\",": 3837,
      "Mad": 3838,
      "Ouch": 3839,
      "ait": 3840,
      "dge": 3841,
      "gro": 3842,
      "hut": 3843,
      "kers": 3844,
      "nie": 3845,
      "pine": 3846,
      "ris": 3847,
      "vator": 3848,
      "wife": 3849,
      "zag": 3850,
      "recomm": 3851,
      "ornam": 3852,
      "nobody": 3853,
      "unhappy": 3854,
      "web": 3855,
      "weap": 3856,
      "lier": 3857,
      "coo": 3858,
      "lawn": 3859,
      "earlier": 3860,
      "checked": 3861,
      "perfu": 3862,
      "haircut": 3863,
      "breathe": 3864,
      "dressed": 3865,
      "married": 3866,
      "elevator": 3867,
      "quietly": 3868,
      "value": 3869,
      "pulls": 3870,
      "belongs": 3871,
      "attach": 3872,
      "wandered": 3873,
      "meeting": 3874,
      "Elly": 3875,
      "marbles": 3876,
      "Buzz": 3877,
      "relaxed": 3878,
      "Brownie": 3879,
      "apron": 3880,
      "journal": 3881,
      "perfume": 3882,
      "Ex": 3883,
      "Hop": 3884,
      "jail": 3885,
      "mpo": 3886,
      "mbers": 3887,
      "zing": 3888,
      "anna": 3889,
      "saving": 3890,
      "leton": 3891,
      "keleton": 3892,
      "igzag": 3893,
      "ppers": 3894,
      "admir": 3895,
      "golf": 3896,
      "chur": 3897,
      "raft": 3898,
      "!\",": 3899,
      "spike": 3900,
      "urge": 3901,
      "poked": 3902,
      "capt": 3903,
      "jogged": 3904,
      "finds": 3905,
      "shampo": 3906,
      "skirt": 3907,
      "headed": 3908,
      "Instead": 3909,
      "opens": 3910,
      "sandcastle": 3911,
      "sity": 3912,
      "twis": 3913,
      "ppery": 3914,
      "eagle": 3915,
      "slippery": 3916,
      "lemonade": 3917,
      "pinch": 3918,
      "cherries": 3919,
      "notebook": 3920,
      "Betty": 3921,
      "sneak": 3922,
      "thumb": 3923,
      "scooter": 3924,
      "fortunately": 3925,
      "shampoo": 3926,
      "First": 3927,
      "Happ": 3928,
      "Millie": 3929,
      "Zo": 3930,
      "dust": 3931,
      "ms": 3932,
      "ox": 3933,
      "tucked": 3934,
      "volcano": 3935,
      "ining": 3936,
      "stad": 3937,
      "spr": 3938,
      "seeing": 3939,
      "opera": 3940,
      "swung": 3941,
      "page": 3942,
      "flea": 3943,
      "works": 3944,
      "discu": 3945,
      "float": 3946,
      "floated": 3947,
      "sandbox": 3948,
      "perfectly": 3949,
      "sparkling": 3950,
      "grapes": 3951,
      "valley": 3952,
      "rubber": 3953,
      "incre": 3954,
      "shakes": 3955,
      "burning": 3956,
      "structure": 3957,
      "Maggie": 3958,
      "shooting": 3959,
      "church": 3960,
      "Happy": 3961,
      "stadium": 3962,
      "fought": 3963,
      "une": 3964,
      "uli": 3965,
      "invest": 3966,
      "infant": 3967,
      "igate": 3968,
      "plastic": 3969,
      "weigh": 3970,
      "happens": 3971,
      "raise": 3972,
      "prune": 3973,
      "anges": 3974,
      "appla": 3975,
      "surprises": 3976,
      "rush": 3977,
      "feelings": 3978,
      "disappear": 3979,
      "understanding": 3980,
      "fallen": 3981,
      "cups": 3982,
      "praised": 3983,
      "presents": 3984,
      "puddles": 3985,
      "washing": 3986,
      "Chir": 3987,
      "wheels": 3988,
      "straight": 3989,
      "glowing": 3990,
      "strawberry": 3991,
      "However": 3992,
      "lime": 3993,
      "scolded": 3994,
      "slept": 3995,
      "grocer": 3996,
      "Liz": 3997,
      "ah": 3998,
      "cof": 3999,
      "dic": 4000,
      "died": 4001,
      "mist": 4002,
      "skeleton": 4003,
      "hesit": 4004,
      "insisted": 4005,
      "staff": 4006,
      "seal": 4007,
      "soil": 4008,
      "fee": 4009,
      "rang": 4010,
      "doggy": 4011,
      "dear": 4012,
      "demand": 4013,
      "comed": 4014,
      "bears": 4015,
      "perfor": 4016,
      "conf": 4017,
      "Not": 4018,
      "leak": 4019,
      "winter": 4020,
      "blueberry": 4021,
      "parrot": 4022,
      "welcomed": 4023,
      "prevent": 4024,
      "prepar": 4025,
      "taller": 4026,
      "falling": 4027,
      "bathtub": 4028,
      "solved": 4029,
      "barking": 4030,
      "ignored": 4031,
      "flapped": 4032,
      "squeeze": 4033,
      "sneeze": 4034,
      "tionary": 4035,
      "avoc": 4036,
      "experience": 4037,
      "message": 4038,
      "porch": 4039,
      "pigeon": 4040,
      "Whiskers": 4041,
      "investigate": 4042,
      "coffee": 4043,
      "dictionary": 4044,
      "Sha": 4045,
      "azz": 4046,
      "zie": 4047,
      "incl": 4048,
      "intro": 4049,
      "below": 4050,
      "ason": 4051,
      "hopes": 4052,
      "hter": 4053,
      "akes": 4054,
      "uggling": 4055,
      "copper": 4056,
      "members": 4057,
      "worth": 4058,
      "llen": 4059,
      "rooms": 4060,
      "laughter": 4061,
      "sort": 4062,
      "paused": 4063,
      "cheek": 4064,
      "setting": 4065,
      "following": 4066,
      "choice": 4067,
      "squirrels": 4068,
      "twink": 4069,
      "Beth": 4070,
      "delay": 4071,
      "apart": 4072,
      "œIâ": 4073,
      "easier": 4074,
      "grabs": 4075,
      "hanging": 4076,
      "supply": 4077,
      "regret": 4078,
      "suitcase": 4079,
      "crossed": 4080,
      "golden": 4081,
      "palm": 4082,
      "baseball": 4083,
      "computer": 4084,
      "weapon": 4085,
      "introd": 4086,
      "Bun": 4087,
      "Zoom": 4088,
      "chat": 4089,
      "ffle": 4090,
      "iv": 4091,
      "iately": 4092,
      "edy": 4093,
      "ins": 4094,
      "waving": 4095,
      "socks": 4096,
      "lic": 4097,
      "spa": 4098,
      "manage": 4099,
      "inky": 4100,
      "rabbits": 4101,
      "permission": 4102,
      "shovel": 4103,
      "settle": 4104,
      "mediately": 4105,
      "planes": 4106,
      "barrel": 4107,
      "growled": 4108,
      "blackboard": 4109,
      "comfort": 4110,
      "patiently": 4111,
      "destination": 4112,
      "diary": 4113,
      "decorations": 4114,
      "barks": 4115,
      "sprayed": 4116,
      "paws": 4117,
      "burned": 4118,
      "neighbourhood": 4119,
      "sniffed": 4120,
      "destroyed": 4121,
      "Unfortunately": 4122,
      "appreciate": 4123,
      "Maddy": 4124,
      "captain": 4125,
      "..": 4126,
      "Cla": 4127,
      "Kay": 4128,
      "bab": 4129,
      "ccer": 4130,
      "fis": 4131,
      "hon": 4132,
      "mome": 4133,
      "nce": 4134,
      "olive": 4135,
      "sna": 4136,
      "since": 4137,
      "herb": 4138,
      "begged": 4139,
      "soccer": 4140,
      "unite": 4141,
      "entered": 4142,
      "thermome": 4143,
      "spade": 4144,
      "spending": 4145,
      "mop": 4146,
      "meat": 4147,
      "newspa": 4148,
      "icing": 4149,
      "poke": 4150,
      "poppy": 4151,
      "pride": 4152,
      "Everyday": 4153,
      "teas": 4154,
      "ction": 4155,
      "paints": 4156,
      "ringing": 4157,
      "fireman": 4158,
      "trave": 4159,
      "lands": 4160,
      "struggling": 4161,
      "smells": 4162,
      "crawling": 4163,
      "Remember": 4164,
      "Julie": 4165,
      "radish": 4166,
      "melon": 4167,
      "bulb": 4168,
      "strawberries": 4169,
      "agreement": 4170,
      "Betsy": 4171,
      "collecting": 4172,
      "whistling": 4173,
      "yawned": 4174,
      "revealed": 4175,
      "tomato": 4176,
      "superhero": 4177,
      "fascinated": 4178,
      "Kayla": 4179,
      "thermometer": 4180,
      "Each": 4181,
      "Ok": 4182,
      "Ral": 4183,
      "gir": 4184,
      "ito": 4185,
      "nies": 4186,
      "oas": 4187,
      "sir": 4188,
      "yield": 4189,
      "wags": 4190,
      "alive": 4191,
      "sty": 4192,
      "kets": 4193,
      "myself": 4194,
      "carto": 4195,
      "model": 4196,
      "poison": 4197,
      "Joy": 4198,
      "acorn": 4199,
      "quit": 4200,
      "antly": 4201,
      "blouse": 4202,
      "tap": 4203,
      "compl": 4204,
      "izes": 4205,
      "perm": 4206,
      "kindly": 4207,
      "scur": 4208,
      "bravely": 4209,
      "disagreed": 4210,
      "difference": 4211,
      "pedal": 4212,
      "frogs": 4213,
      "hills": 4214,
      "elephants": 4215,
      "slip": 4216,
      "uniform": 4217,
      "Bubbles": 4218,
      "strip": 4219,
      "chirped": 4220,
      "True": 4221,
      "scratch": 4222,
      "kneel": 4223,
      "approached": 4224,
      "cooked": 4225,
      "Ralph": 4226,
      "oasis": 4227,
      "Mo": 4228,
      "Mis": 4229,
      "Wait": 4230,
      "bathe": 4231,
      "fut": 4232,
      "jazz": 4233,
      "lter": 4234,
      "obey": 4235,
      "py": 4236,
      "rum": 4237,
      "tide": 4238,
      "zigzag": 4239,
      "sters": 4240,
      "oranges": 4241,
      "beg": 4242,
      "plates": 4243,
      "ideas": 4244,
      "urt": 4245,
      "news": 4246,
      "cauli": 4247,
      "grill": 4248,
      "ache": 4249,
      "aches": 4250,
      "quack": 4251,
      "Jacky": 4252,
      "dresses": 4253,
      "sett": 4254,
      "monkeys": 4255,
      "wardrobe": 4256,
      "medal": 4257,
      "points": 4258,
      "mention": 4259,
      "jeep": 4260,
      "chairs": 4261,
      "villag": 4262,
      "Ellie": 4263,
      "zoomed": 4264,
      "chewed": 4265,
      "peanuts": 4266,
      "squeezed": 4267,
      "collected": 4268,
      "measuring": 4269,
      "memories": 4270,
      "future": 4271,
      "Co": 4272,
      "Po": 4273,
      "equ": 4274,
      "gloves": 4275,
      "lang": 4276,
      "mare": 4277,
      "pany": 4278,
      "padd": 4279,
      "ws": 4280,
      "wipe": 4281,
      "zipped": 4282,
      "œCan": 4283,
      "shelter": 4284,
      "costu": 4285,
      "umber": 4286,
      "tooth": 4287,
      "decis": 4288,
      "bling": 4289,
      "observe": 4290,
      "company": 4291,
      "perched": 4292,
      "surf": 4293,
      "shoot": 4294,
      "famil": 4295,
      "warmth": 4296,
      "cutting": 4297,
      "planet": 4298,
      "matches": 4299,
      "sailing": 4300,
      "Someone": 4301,
      "gifts": 4302,
      "People": 4303,
      "freezer": 4304,
      "signs": 4305,
      "cows": 4306,
      "puzzles": 4307,
      "trusted": 4308,
      "support": 4309,
      "bananas": 4310,
      "chirping": 4311,
      "Floppy": 4312,
      "remained": 4313,
      "panda": 4314,
      "avocado": 4315,
      "permit": 4316,
      "villagers": 4317,
      "langu": 4318,
      "costume": 4319,
      "Big": 4320,
      "Hanna": 4321,
      "Pat": 4322,
      "Ru": 4323,
      "bicy": 4324,
      "dried": 4325,
      "daisy": 4326,
      "mm": 4327,
      "ost": 4328,
      "pages": 4329,
      "sigh": 4330,
      "simp": 4331,
      "œNo": 4332,
      "œHello": 4333,
      "immediately": 4334,
      "alright": 4335,
      "stitch": 4336,
      "oking": 4337,
      "Its": 4338,
      "ults": 4339,
      "worse": 4340,
      "peppers": 4341,
      "jogging": 4342,
      "fastest": 4343,
      "served": 4344,
      "spoons": 4345,
      "sings": 4346,
      "planted": 4347,
      "forgotten": 4348,
      "deeper": 4349,
      "throws": 4350,
      "neighbors": 4351,
      "easily": 4352,
      "velvet": 4353,
      "examined": 4354,
      "weeks": 4355,
      "Julia": 4356,
      "crib": 4357,
      "Always": 4358,
      "loaded": 4359,
      "bumped": 4360,
      "Robby": 4361,
      "brick": 4362,
      "surrounded": 4363,
      "snapped": 4364,
      "newspaper": 4365,
      "Hannah": 4366,
      "ostrich": 4367,
      "simple": 4368,
      "Gig": 4369,
      "Like": 4370,
      "Mor": 4371,
      "Nut": 4372,
      "Pen": 4373,
      "Sun": 4374,
      "Tilly": 4375,
      "blo": 4376,
      "crun": 4377,
      "emer": 4378,
      "lily": 4379,
      "panc": 4380,
      "som": 4381,
      "sizes": 4382,
      "waist": 4383,
      "waffle": 4384,
      "iding": 4385,
      "herman": 4386,
      "igno": 4387,
      "ady": 4388,
      "ups": 4389,
      "weighed": 4390,
      "lies": 4391,
      "plays": 4392,
      "chy": 4393,
      "downstairs": 4394,
      "quiz": 4395,
      "bury": 4396,
      "jumps": 4397,
      "nightmare": 4398,
      "pulling": 4399,
      "sparkles": 4400,
      "blankets": 4401,
      "scooped": 4402,
      "grandmother": 4403,
      "rubbing": 4404,
      "missile": 4405,
      "clearing": 4406,
      "freshed": 4407,
      "Buzzy": 4408,
      "candles": 4409,
      "receive": 4410,
      "sausage": 4411,
      "encouraged": 4412,
      "salt": 4413,
      "suffer": 4414,
      "Froggy": 4415,
      "Exc": 4416,
      "admiring": 4417,
      "fisherman": 4418,
      "begin": 4419,
      "cauliflower": 4420,
      "bicycle": 4421,
      "Moral": 4422,
      "Bird": 4423,
      "Lee": 4424,
      "Nor": 4425,
      "Wel": 4426,
      "dire": 4427,
      "ler": 4428,
      "mittens": 4429,
      "slice": 4430,
      "tug": 4431,
      "vac": 4432,
      "yth": 4433,
      "œWe": 4434,
      "tore": 4435,
      "reverse": 4436,
      "remembers": 4437,
      "refreshed": 4438,
      "itar": 4439,
      "thr": 4440,
      "sheet": 4441,
      "unlock": 4442,
      "upstairs": 4443,
      "lick": 4444,
      "mosqu": 4445,
      "birdcage": 4446,
      "master": 4447,
      "eaten": 4448,
      "keeping": 4449,
      "hearts": 4450,
      "chores": 4451,
      "guitar": 4452,
      "tricks": 4453,
      "buckle": 4454,
      "score": 4455,
      "Goodbye": 4456,
      "pupil": 4457,
      "yog": 4458,
      "pastels": 4459,
      "argue": 4460,
      "cliff": 4461,
      "balancing": 4462,
      "massage": 4463,
      "ribbon": 4464,
      "twisted": 4465,
      "sprink": 4466,
      "Gigi": 4467,
      "Welcome": 4468,
      "Dav": 4469,
      "Kat": 4470,
      "Tin": 4471,
      "Yum": 4472,
      "cus": 4473,
      "drain": 4474,
      "laser": 4475,
      "lumber": 4476,
      "rust": 4477,
      "tles": 4478,
      "tasks": 4479,
      "wed": 4480,
      "œMommy": 4481,
      "wagging": 4482,
      "ites": 4483,
      "ides": 4484,
      "sore": 4485,
      "weight": 4486,
      "rod": 4487,
      "boot": 4488,
      "chor": 4489,
      "aren": 4490,
      "ety": 4491,
      "helper": 4492,
      "odd": 4493,
      "icky": 4494,
      "homes": 4495,
      "sunlight": 4496,
      "hurting": 4497,
      "letâ": 4498,
      "heads": 4499,
      "greedy": 4500,
      "blueberries": 4501,
      "follows": 4502,
      "sticky": 4503,
      "fixing": 4504,
      "trapped": 4505,
      "proper": 4506,
      "bene": 4507,
      "attached": 4508,
      "problems": 4509,
      "uggle": 4510,
      "sneezed": 4511,
      "scattered": 4512,
      "safety": 4513,
      "recommend": 4514,
      "license": 4515,
      "settled": 4516,
      "Nutty": 4517,
      "ythm": 4518,
      "yogurt": 4519,
      "David": 4520,
      "Tiny": 4521,
      "Bir": 4522,
      "Fol": 4523,
      "Luck": 4524,
      "Qu": 4525,
      "Slow": 4526,
      "Sant": 4527,
      "au": 4528,
      "ding": 4529,
      "pitch": 4530,
      "sip": 4531,
      "vy": 4532,
      "heel": 4533,
      "reaches": 4534,
      "omas": 4535,
      "onwards": 4536,
      "beside": 4537,
      "ripe": 4538,
      "happiest": 4539,
      "caring": 4540,
      "fest": 4541,
      "ects": 4542,
      "peach": 4543,
      "shower": 4544,
      "watches": 4545,
      "izard": 4546,
      "Thomas": 4547,
      "ipment": 4548,
      "parts": 4549,
      "bottles": 4550,
      "provide": 4551,
      "continue": 4552,
      "vision": 4553,
      "moments": 4554,
      "sparkle": 4555,
      "drinking": 4556,
      "bringing": 4557,
      "kisses": 4558,
      "bouncy": 4559,
      "tune": 4560,
      "hanger": 4561,
      "rides": 4562,
      "crept": 4563,
      "jellyfish": 4564,
      "shadows": 4565,
      "whistled": 4566,
      "recognize": 4567,
      "scatter": 4568,
      "Suzie": 4569,
      "club": 4570,
      "muscles": 4571,
      "Zoe": 4572,
      "discuss": 4573,
      "Chirpy": 4574,
      "equipment": 4575,
      "decision": 4576,
      "beneath": 4577,
      "Follow": 4578,
      "Santa": 4579,
      "Lizzy": 4580,
      "Sunny": 4581,
      "ik": 4582,
      "iel": 4583,
      "ival": 4584,
      "lab": 4585,
      "mug": 4586,
      "none": 4587,
      "osed": 4588,
      "sie": 4589,
      "sled": 4590,
      "tions": 4591,
      "vor": 4592,
      "wigg": 4593,
      "ygen": 4594,
      "œThank": 4595,
      "heat": 4596,
      "ana": 4597,
      "instruc": 4598,
      "sages": 4599,
      "iggling": 4600,
      "aded": 4601,
      "united": 4602,
      "root": 4603,
      "rake": 4604,
      "makeup": 4605,
      "navy": 4606,
      "wool": 4607,
      "izing": 4608,
      "hurried": 4609,
      "contain": 4610,
      "ffic": 4611,
      "moves": 4612,
      "claws": 4613,
      "mint": 4614,
      "zooming": 4615,
      "figured": 4616,
      "jewelry": 4617,
      "supposed": 4618,
      "marching": 4619,
      "soaring": 4620,
      "pillows": 4621,
      "melt": 4622,
      "prayed": 4623,
      "Mikey": 4624,
      "Daniel": 4625,
      "selling": 4626,
      "menu": 4627,
      "ordered": 4628,
      "battery": 4629,
      "recei": 4630,
      "achieve": 4631,
      "meowed": 4632,
      "oxygen": 4633,
      "language": 4634,
      "pancakes": 4635,
      "ignore": 4636,
      "vacation": 4637,
      "mosquito": 4638,
      "Luckily": 4639,
      "festival": 4640,
      "God": 4641,
      "Mila": 4642,
      "aw": 4643,
      "baking": 4644,
      "hunt": 4645,
      "osity": 4646,
      "ues": 4647,
      "anchor": 4648,
      "eday": 4649,
      "tour": 4650,
      "restore": 4651,
      "isies": 4652,
      "beat": 4653,
      "hate": 4654,
      "seag": 4655,
      "endar": 4656,
      "covery": 4657,
      "label": 4658,
      "caut": 4659,
      "wallet": 4660,
      "accompl": 4661,
      "items": 4662,
      "skull": 4663,
      "buried": 4664,
      "overjoy": 4665,
      "tease": 4666,
      "lotion": 4667,
      "discovery": 4668,
      "visiting": 4669,
      "judge": 4670,
      "affe": 4671,
      "daisies": 4672,
      "calendar": 4673,
      "pasta": 4674,
      "neighborhood": 4675,
      "practicing": 4676,
      "machines": 4677,
      "Ready": 4678,
      "solut": 4679,
      "invite": 4680,
      "jewels": 4681,
      "sliding": 4682,
      "pirates": 4683,
      "pearl": 4684,
      "crum": 4685,
      "apologize": 4686,
      "television": 4687,
      "cuddle": 4688,
      "recognized": 4689,
      "Sadie": 4690,
      "ornaments": 4691,
      "prepared": 4692,
      "included": 4693,
      "Claire": 4694,
      "giraffe": 4695,
      "Miss": 4696,
      "Nora": 4697,
      "seagull": 4698,
      "overjoyed": 4699,
      "Boo": 4700,
      "Jon": 4701,
      "King": 4702,
      "Lu": 4703,
      "Mim": 4704,
      "Sh": 4705,
      "cable": 4706,
      "dare": 4707,
      "digg": 4708,
      "lk": 4709,
      "lam": 4710,
      "muddy": 4711,
      "yucky": 4712,
      "œDon": 4713,
      "œWhy": 4714,
      "œOh": 4715,
      "stable": 4716,
      "ric": 4717,
      "riage": 4718,
      "boom": 4719,
      "bother": 4720,
      "sidewalk": 4721,
      "wanting": 4722,
      "uses": 4723,
      "shopping": 4724,
      "letting": 4725,
      "grey": 4726,
      "petted": 4727,
      "crashed": 4728,
      "satis": 4729,
      "chalk": 4730,
      "believed": 4731,
      "basketball": 4732,
      "mailman": 4733,
      "tube": 4734,
      "Really": 4735,
      "coloured": 4736,
      "folded": 4737,
      "reminder": 4738,
      "cuddled": 4739,
      "twigs": 4740,
      "measured": 4741,
      "Sadly": 4742,
      "argued": 4743,
      "Suzy": 4744,
      "Jessie": 4745,
      "instructions": 4746,
      "received": 4747,
      "Mimi": 4748,
      "digging": 4749,
      "Fur": 4750,
      "Gary": 4751,
      "Je": 4752,
      "Yuck": 4753,
      "bun": 4754,
      "bill": 4755,
      "giggling": 4756,
      "wizard": 4757,
      "tong": 4758,
      "inch": 4759,
      "inter": 4760,
      "waits": 4761,
      "itches": 4762,
      "stro": 4763,
      "novel": 4764,
      "ripped": 4765,
      "licks": 4766,
      "rac": 4767,
      "spear": 4768,
      "coal": 4769,
      "starfish": 4770,
      "stom": 4771,
      "oper": 4772,
      "calls": 4773,
      "offic": 4774,
      "ventured": 4775,
      "fied": 4776,
      "monsters": 4777,
      "writes": 4778,
      "roaring": 4779,
      "activ": 4780,
      "brushes": 4781,
      "panic": 4782,
      "stirring": 4783,
      "flutter": 4784,
      "soared": 4785,
      "memory": 4786,
      "sausages": 4787,
      "curtains": 4788,
      "cobweb": 4789,
      "respons": 4790,
      "punish": 4791,
      "effort": 4792,
      "someday": 4793,
      "properly": 4794,
      "Slowly": 4795,
      "tongue": 4796,
      "Fu": 4797,
      "Friend": 4798,
      "List": 4799,
      "Sim": 4800,
      "bare": 4801,
      "bank": 4802,
      "cous": 4803,
      "during": 4804,
      "event": 4805,
      "ester": 4806,
      "fs": 4807,
      "gers": 4808,
      "lung": 4809,
      "lines": 4810,
      "olives": 4811,
      "wid": 4812,
      "ero": 4813,
      "ona": 4814,
      "ising": 4815,
      "lest": 4816,
      "lied": 4817,
      "cared": 4818,
      "exact": 4819,
      "worries": 4820,
      "everyday": 4821,
      "anytime": 4822,
      "brain": 4823,
      "hurri": 4824,
      "spots": 4825,
      "voices": 4826,
      "waiter": 4827,
      "bowed": 4828,
      "Emmy": 4829,
      "darkness": 4830,
      "tastes": 4831,
      "challen": 4832,
      "situ": 4833,
      "horses": 4834,
      "answers": 4835,
      "miner": 4836,
      "struggled": 4837,
      "circus": 4838,
      "turning": 4839,
      "spiders": 4840,
      "universe": 4841,
      "invit": 4842,
      "rockets": 4843,
      "lemons": 4844,
      "pinched": 4845,
      "leader": 4846,
      "studying": 4847,
      "competition": 4848,
      "camping": 4849,
      "discovering": 4850,
      "countryside": 4851,
      "disturbed": 4852,
      "six": 4853,
      "beans": 4854,
      "buzzing": 4855,
      "landscape": 4856,
      "Penny": 4857,
      "thrilled": 4858,
      "Listen": 4859,
      "!'": 4860,
      "Mic": 4861,
      "Nick": 4862,
      "Olive": 4863,
      "Pi": 4864,
      "fy": 4865,
      "gran": 4866,
      "hits": 4867,
      "iers": 4868,
      "junk": 4869,
      "swo": 4870,
      "snap": 4871,
      "tugged": 4872,
      "wine": 4873,
      "todd": 4874,
      "tonight": 4875,
      "remove": 4876,
      "image": 4877,
      "ory": 4878,
      "orts": 4879,
      "beha": 4880,
      "neath": 4881,
      "liqu": 4882,
      "chip": 4883,
      "smar": 4884,
      "Itâ": 4885,
      "racco": 4886,
      "fully": 4887,
      "abby": 4888,
      "laid": 4889,
      "seesaw": 4890,
      "peered": 4891,
      "bbled": 4892,
      "brings": 4893,
      "uct": 4894,
      "trig": 4895,
      "shot": 4896,
      "Afterwards": 4897,
      "wondering": 4898,
      "breaking": 4899,
      "ladybug": 4900,
      "prints": 4901,
      "strangers": 4902,
      "catching": 4903,
      "planned": 4904,
      "prec": 4905,
      "press": 4906,
      "creation": 4907,
      "choo": 4908,
      "char": 4909,
      "wasnâ": 4910,
      "mustache": 4911,
      "mixing": 4912,
      "passing": 4913,
      "doctors": 4914,
      "studied": 4915,
      "drinks": 4916,
      "nicer": 4917,
      "gathering": 4918,
      "protected": 4919,
      "paintings": 4920,
      "jamas": 4921,
      "June": 4922,
      "melted": 4923,
      "flavor": 4924,
      "spaceship": 4925,
      "strike": 4926,
      "rhythm": 4927,
      "guessed": 4928,
      "objects": 4929,
      "Robbie": 4930,
      "reveal": 4931,
      "tomatoes": 4932,
      "Spike": 4933,
      "trembling": 4934,
      "tickets": 4935,
      "slap": 4936,
      "disturb": 4937,
      "teasing": 4938,
      "Ruby": 4939,
      "crunchy": 4940,
      "Katie": 4941,
      "lamb": 4942,
      "billboard": 4943,
      "barely": 4944,
      "liquid": 4945,
      "raccoon": 4946,
      ".'": 4947,
      "Abby": 4948,
      "De": 4949,
      "Get": 4950,
      "Green": 4951,
      "Mir": 4952,
      "Mat": 4953,
      "Take": 4954,
      "fir": 4955,
      "gle": 4956,
      "iar": 4957,
      "pite": 4958,
      "lect": 4959,
      "becoming": 4960,
      "youâ": 4961,
      "chuck": 4962,
      "area": 4963,
      "raised": 4964,
      "girls": 4965,
      "urged": 4966,
      "cot": 4967,
      "loops": 4968,
      "sadness": 4969,
      "gotten": 4970,
      "kingdom": 4971,
      "Anne": 4972,
      "uced": 4973,
      "pajamas": 4974,
      "expected": 4975,
      "comfy": 4976,
      "surface": 4977,
      "beds": 4978,
      "bleed": 4979,
      "hardly": 4980,
      "steam": 4981,
      "iously": 4982,
      "bites": 4983,
      "firefight": 4984,
      "traffic": 4985,
      "growl": 4986,
      "Something": 4987,
      "purred": 4988,
      "written": 4989,
      "mination": 4990,
      "freeze": 4991,
      "comforted": 4992,
      "accidents": 4993,
      "struck": 4994,
      "piles": 4995,
      "actually": 4996,
      "kicking": 4997,
      "teaching": 4998,
      "coats": 4999
    },
    "merges": [
      [
        "h",
        "e"
      ],
      [
        "a",
        "n"
      ],
      [
        "t",
        "he"
      ],
      [
        "e",
        "d"
      ],
      [
        "an",
        "d"
      ],
      [
        "t",
        "o"
      ],
      [
        "i",
        "n"
      ],
      [
        "r",
        "e"
      ],
      [
        "w",
        "a"
      ],
      [
        "o",
        "u"
      ],
      [
        "i",
        "t"
      ],
      [
        "h",
        "a"
      ],
      [
        "e",
        "r"
      ],
      [
        "wa",
        "s"
      ],
      [
        "e",
        "n"
      ],
      [
        "o",
        "m"
      ],
      [
        "o",
        "n"
      ],
      [
        "a",
        "r"
      ],
      [
        "in",
        "g"
      ],
      [
        "i",
        "s"
      ],
      [
        "T",
        "he"
      ],
      [
        "i",
        "d"
      ],
      [
        "i",
        "l"
      ],
      [
        "s",
        "a"
      ],
      [
        "l",
        "e"
      ],
      [
        "a",
        "y"
      ],
      [
        "i",
        "m"
      ],
      [
        "l",
        "o"
      ],
      [
        "a",
        "l"
      ],
      [
        "s",
        "t"
      ],
      [
        "o",
        "r"
      ],
      [
        "he",
        "r"
      ],
      [
        "t",
        "h"
      ],
      [
        "H",
        "e"
      ],
      [
        "i",
        "r"
      ],
      [
        "S",
        "he"
      ],
      [
        "b",
        "e"
      ],
      [
        "n",
        "e"
      ],
      [
        "ha",
        "t"
      ],
      [
        "v",
        "er"
      ],
      [
        "u",
        "t"
      ],
      [
        "s",
        "e"
      ],
      [
        "c",
        "k"
      ],
      [
        "sa",
        "id"
      ],
      [
        "l",
        "d"
      ],
      [
        "c",
        "e"
      ],
      [
        "The",
        "y"
      ],
      [
        "a",
        "t"
      ],
      [
        "a",
        "m"
      ],
      [
        "k",
        "e"
      ],
      [
        "s",
        "he"
      ],
      [
        "i",
        "g"
      ],
      [
        "n",
        "o"
      ],
      [
        "v",
        "e"
      ],
      [
        "p",
        "p"
      ],
      [
        "il",
        "y"
      ],
      [
        "p",
        "l"
      ],
      [
        "s",
        "o"
      ],
      [
        "it",
        "h"
      ],
      [
        "h",
        "is"
      ],
      [
        "w",
        "ith"
      ],
      [
        "r",
        "i"
      ],
      [
        "l",
        "y"
      ],
      [
        "k",
        "ed"
      ],
      [
        "a",
        "d"
      ],
      [
        "o",
        "f"
      ],
      [
        "d",
        "ay"
      ],
      [
        "u",
        "n"
      ],
      [
        "y",
        "ou"
      ],
      [
        "L",
        "ily"
      ],
      [
        "ver",
        "y"
      ],
      [
        "u",
        "p"
      ],
      [
        "om",
        "e"
      ],
      [
        "w",
        "e"
      ],
      [
        "m",
        "y"
      ],
      [
        "t",
        "hat"
      ],
      [
        "l",
        "i"
      ],
      [
        "a",
        "s"
      ],
      [
        "h",
        "o"
      ],
      [
        "t",
        "ed"
      ],
      [
        "g",
        "o"
      ],
      [
        "d",
        "o"
      ],
      [
        "ha",
        "d"
      ],
      [
        "pl",
        "ay"
      ],
      [
        "f",
        "or"
      ],
      [
        "the",
        "y"
      ],
      [
        "m",
        "om"
      ],
      [
        "e",
        "l"
      ],
      [
        "n",
        "d"
      ],
      [
        "r",
        "o"
      ],
      [
        "e",
        "s"
      ],
      [
        "b",
        "o"
      ],
      [
        "c",
        "h"
      ],
      [
        "ou",
        "ld"
      ],
      [
        "al",
        "l"
      ],
      [
        "en",
        "d"
      ],
      [
        "it",
        "t"
      ],
      [
        "en",
        "t"
      ],
      [
        "g",
        "e"
      ],
      [
        "t",
        "im"
      ],
      [
        "ha",
        "pp"
      ],
      [
        "w",
        "an"
      ],
      [
        "itt",
        "le"
      ],
      [
        "ou",
        "nd"
      ],
      [
        "l",
        "ittle"
      ],
      [
        "tim",
        "e"
      ],
      [
        "the",
        "r"
      ],
      [
        "the",
        "re"
      ],
      [
        "ou",
        "t"
      ],
      [
        "o",
        "k"
      ],
      [
        "s",
        "m"
      ],
      [
        "I",
        "t"
      ],
      [
        "a",
        "re"
      ],
      [
        "h",
        "t"
      ],
      [
        "r",
        "a"
      ],
      [
        "b",
        "ig"
      ],
      [
        "r",
        "y"
      ],
      [
        "happ",
        "y"
      ],
      [
        "ri",
        "end"
      ],
      [
        "f",
        "riend"
      ],
      [
        "no",
        "t"
      ],
      [
        "b",
        "ut"
      ],
      [
        "a",
        "ck"
      ],
      [
        "sa",
        "w"
      ],
      [
        "th",
        "ing"
      ],
      [
        "T",
        "im"
      ],
      [
        "O",
        "ne"
      ],
      [
        "u",
        "l"
      ],
      [
        "O",
        "n"
      ],
      [
        "t",
        "er"
      ],
      [
        ".",
        "\""
      ],
      [
        "a",
        "ke"
      ],
      [
        "on",
        "e"
      ],
      [
        "id",
        "e"
      ],
      [
        "v",
        "ed"
      ],
      [
        "On",
        "ce"
      ],
      [
        "s",
        "ome"
      ],
      [
        "!",
        "\""
      ],
      [
        "u",
        "g"
      ],
      [
        "wa",
        "y"
      ],
      [
        "we",
        "re"
      ],
      [
        "ir",
        "l"
      ],
      [
        "up",
        "on"
      ],
      [
        "h",
        "im"
      ],
      [
        "c",
        "ar"
      ],
      [
        "g",
        "irl"
      ],
      [
        "e",
        "t"
      ],
      [
        "f",
        "e"
      ],
      [
        "wan",
        "ted"
      ],
      [
        "f",
        "ul"
      ],
      [
        "sm",
        "il"
      ],
      [
        "s",
        "p"
      ],
      [
        "a",
        "g"
      ],
      [
        "e",
        "x"
      ],
      [
        "u",
        "r"
      ],
      [
        "c",
        "ould"
      ],
      [
        "il",
        "l"
      ],
      [
        "he",
        "n"
      ],
      [
        "e",
        "c"
      ],
      [
        "c",
        "o"
      ],
      [
        "the",
        "m"
      ],
      [
        "s",
        "h"
      ],
      [
        "w",
        "ent"
      ],
      [
        "m",
        "o"
      ],
      [
        "he",
        "l"
      ],
      [
        "in",
        "d"
      ],
      [
        "n",
        "am"
      ],
      [
        "T",
        "om"
      ],
      [
        "d",
        "id"
      ],
      [
        "the",
        "ir"
      ],
      [
        "r",
        "om"
      ],
      [
        "m",
        "e"
      ],
      [
        "c",
        "an"
      ],
      [
        "ne",
        "w"
      ],
      [
        "ha",
        "ve"
      ],
      [
        "hel",
        "p"
      ],
      [
        "u",
        "m"
      ],
      [
        "B",
        "en"
      ],
      [
        "?",
        "\""
      ],
      [
        "friend",
        "s"
      ],
      [
        "he",
        "d"
      ],
      [
        "a",
        "b"
      ],
      [
        "B",
        "ut"
      ],
      [
        "ig",
        "ht"
      ],
      [
        "a",
        "in"
      ],
      [
        "o",
        "d"
      ],
      [
        "f",
        "el"
      ],
      [
        "smil",
        "ed"
      ],
      [
        "b",
        "ack"
      ],
      [
        "i",
        "c"
      ],
      [
        "Tim",
        "my"
      ],
      [
        "nam",
        "ed"
      ],
      [
        "s",
        "ide"
      ],
      [
        "y",
        "s"
      ],
      [
        "w",
        "n"
      ],
      [
        "as",
        "ked"
      ],
      [
        "f",
        "un"
      ],
      [
        "f",
        "o"
      ],
      [
        "r",
        "an"
      ],
      [
        "ou",
        "g"
      ],
      [
        "ar",
        "k"
      ],
      [
        "st",
        "ar"
      ],
      [
        "lo",
        "o"
      ],
      [
        "lo",
        "ved"
      ],
      [
        "m",
        "an"
      ],
      [
        "ar",
        "ound"
      ],
      [
        "to",
        "o"
      ],
      [
        "l",
        "a"
      ],
      [
        "li",
        "ke"
      ],
      [
        "loo",
        "ked"
      ],
      [
        "ar",
        "d"
      ],
      [
        "fel",
        "t"
      ],
      [
        "i",
        "ck"
      ],
      [
        "am",
        "e"
      ],
      [
        "lo",
        "w"
      ],
      [
        "Y",
        "ou"
      ],
      [
        "s",
        "to"
      ],
      [
        "bo",
        "y"
      ],
      [
        "b",
        "ir"
      ],
      [
        "u",
        "re"
      ],
      [
        "se",
        "e"
      ],
      [
        "w",
        "or"
      ],
      [
        "w",
        "ould"
      ],
      [
        "bir",
        "d"
      ],
      [
        "ge",
        "ther"
      ],
      [
        "re",
        "e"
      ],
      [
        "f",
        "a"
      ],
      [
        "on",
        "g"
      ],
      [
        "ho",
        "w"
      ],
      [
        "t",
        "s"
      ],
      [
        "p",
        "o"
      ],
      [
        "p",
        "r"
      ],
      [
        "l",
        "l"
      ],
      [
        "d",
        "d"
      ],
      [
        "M",
        "om"
      ],
      [
        "no",
        "w"
      ],
      [
        "m",
        "ake"
      ],
      [
        "o",
        "ther"
      ],
      [
        "to",
        "gether"
      ],
      [
        "star",
        "ted"
      ],
      [
        "w",
        "hat"
      ],
      [
        "c",
        "a"
      ],
      [
        "it",
        "ed"
      ],
      [
        "i",
        "ce"
      ],
      [
        ",",
        "\""
      ],
      [
        "some",
        "thing"
      ],
      [
        "a",
        "way"
      ],
      [
        "ad",
        "e"
      ],
      [
        "c",
        "ame"
      ],
      [
        "ex",
        "c"
      ],
      [
        "ou",
        "d"
      ],
      [
        "s",
        "s"
      ],
      [
        "g",
        "r"
      ],
      [
        "p",
        "ark"
      ],
      [
        "o",
        "p"
      ],
      [
        "m",
        "ade"
      ],
      [
        "pp",
        "ed"
      ],
      [
        "ge",
        "t"
      ],
      [
        "f",
        "rom"
      ],
      [
        "lo",
        "ok"
      ],
      [
        "p",
        "e"
      ],
      [
        "sa",
        "d"
      ],
      [
        "u",
        "s"
      ],
      [
        "the",
        "n"
      ],
      [
        "h",
        "ome"
      ],
      [
        "p",
        "ut"
      ],
      [
        "ag",
        "ain"
      ],
      [
        "go",
        "t"
      ],
      [
        "wa",
        "l"
      ],
      [
        "u",
        "e"
      ],
      [
        "f",
        "ound"
      ],
      [
        "i",
        "f"
      ],
      [
        "s",
        "car"
      ],
      [
        "al",
        "ly"
      ],
      [
        "w",
        "hen"
      ],
      [
        "oug",
        "ht"
      ],
      [
        "wan",
        "t"
      ],
      [
        "w",
        "ho"
      ],
      [
        "i",
        "e"
      ],
      [
        "exc",
        "ited"
      ],
      [
        "play",
        "ing"
      ],
      [
        "e",
        "p"
      ],
      [
        "b",
        "y"
      ],
      [
        "u",
        "st"
      ],
      [
        "d",
        "ec"
      ],
      [
        "ri",
        "ed"
      ],
      [
        "a",
        "ch"
      ],
      [
        "k",
        "ing"
      ],
      [
        "go",
        "od"
      ],
      [
        "n",
        "a"
      ],
      [
        "u",
        "ch"
      ],
      [
        "ou",
        "s"
      ],
      [
        "mo",
        "re"
      ],
      [
        "n",
        "y"
      ],
      [
        "thing",
        "s"
      ],
      [
        "a",
        "ve"
      ],
      [
        "h",
        "ug"
      ],
      [
        "u",
        "ck"
      ],
      [
        "u",
        "dd"
      ],
      [
        "e",
        "very"
      ],
      [
        "j",
        "o"
      ],
      [
        "d",
        "er"
      ],
      [
        "id",
        "ed"
      ],
      [
        "dec",
        "ided"
      ],
      [
        "u",
        "se"
      ],
      [
        "c",
        "are"
      ],
      [
        "ou",
        "se"
      ],
      [
        "J",
        "o"
      ],
      [
        "th",
        "an"
      ],
      [
        "do",
        "g"
      ],
      [
        "do",
        "wn"
      ],
      [
        "scar",
        "ed"
      ],
      [
        "way",
        "s"
      ],
      [
        "li",
        "ked"
      ],
      [
        "ar",
        "a"
      ],
      [
        "w",
        "o"
      ],
      [
        "S",
        "o"
      ],
      [
        "S",
        "am"
      ],
      [
        "t",
        "ree"
      ],
      [
        "fe",
        "el"
      ],
      [
        "t",
        "ake"
      ],
      [
        "b",
        "b"
      ],
      [
        "c",
        "lo"
      ],
      [
        "f",
        "ind"
      ],
      [
        "sa",
        "ys"
      ],
      [
        "s",
        "ha"
      ],
      [
        "you",
        "r"
      ],
      [
        "d",
        "ad"
      ],
      [
        "a",
        "x"
      ],
      [
        "o",
        "ld"
      ],
      [
        "al",
        "ways"
      ],
      [
        "at",
        "e"
      ],
      [
        "he",
        "re"
      ],
      [
        "a",
        "c"
      ],
      [
        "an",
        "g"
      ],
      [
        "it",
        "e"
      ],
      [
        "w",
        "h"
      ],
      [
        "ou",
        "r"
      ],
      [
        "th",
        "ought"
      ],
      [
        "did",
        "n"
      ],
      [
        "sp",
        "ec"
      ],
      [
        "q",
        "u"
      ],
      [
        "ro",
        "om"
      ],
      [
        "ab",
        "out"
      ],
      [
        "M",
        "ax"
      ],
      [
        "S",
        "ara"
      ],
      [
        "to",
        "ok"
      ],
      [
        "W",
        "hen"
      ],
      [
        "b",
        "r"
      ],
      [
        "re",
        "t"
      ],
      [
        "ar",
        "n"
      ],
      [
        "udd",
        "en"
      ],
      [
        "la",
        "ug"
      ],
      [
        "is",
        "e"
      ],
      [
        "out",
        "side"
      ],
      [
        "mom",
        "my"
      ],
      [
        "H",
        "er"
      ],
      [
        "J",
        "ack"
      ],
      [
        "udden",
        "ly"
      ],
      [
        "en",
        "ed"
      ],
      [
        "er",
        "s"
      ],
      [
        "d",
        "e"
      ],
      [
        "i",
        "al"
      ],
      [
        "fo",
        "re"
      ],
      [
        "an",
        "t"
      ],
      [
        "A",
        "n"
      ],
      [
        "o",
        "l"
      ],
      [
        "m",
        "a"
      ],
      [
        "spec",
        "ial"
      ],
      [
        "to",
        "ys"
      ],
      [
        "k",
        "new"
      ],
      [
        "i",
        "ve"
      ],
      [
        "t",
        "y"
      ],
      [
        "an",
        "y"
      ],
      [
        "e",
        "ar"
      ],
      [
        "le",
        "arn"
      ],
      [
        "k",
        "now"
      ],
      [
        "r",
        "ed"
      ],
      [
        "W",
        "e"
      ],
      [
        "g",
        "ed"
      ],
      [
        "c",
        "at"
      ],
      [
        "ne",
        "ver"
      ],
      [
        "o",
        "w"
      ],
      [
        "f",
        "ter"
      ],
      [
        "w",
        "ill"
      ],
      [
        "c",
        "ome"
      ],
      [
        "s",
        "un"
      ],
      [
        "v",
        "en"
      ],
      [
        "is",
        "h"
      ],
      [
        "u",
        "c"
      ],
      [
        "to",
        "y"
      ],
      [
        "ab",
        "le"
      ],
      [
        "An",
        "na"
      ],
      [
        "t",
        "r"
      ],
      [
        "E",
        "very"
      ],
      [
        "s",
        "how"
      ],
      [
        "b",
        "l"
      ],
      [
        "h",
        "ouse"
      ],
      [
        "r",
        "d"
      ],
      [
        "in",
        "to"
      ],
      [
        "m",
        "uch"
      ],
      [
        "S",
        "uddenly"
      ],
      [
        "could",
        "n"
      ],
      [
        "l",
        "f"
      ],
      [
        "is",
        "t"
      ],
      [
        "s",
        "or"
      ],
      [
        "s",
        "k"
      ],
      [
        "d",
        "re"
      ],
      [
        "L",
        "et"
      ],
      [
        "b",
        "all"
      ],
      [
        "to",
        "ld"
      ],
      [
        "care",
        "ful"
      ],
      [
        "s",
        "w"
      ],
      [
        "p",
        "a"
      ],
      [
        "b",
        "u"
      ],
      [
        "t",
        "a"
      ],
      [
        "th",
        "is"
      ],
      [
        "g",
        "ave"
      ],
      [
        "h",
        "and"
      ],
      [
        "o",
        "ver"
      ],
      [
        "in",
        "side"
      ],
      [
        "ex",
        "p"
      ],
      [
        "l",
        "ong"
      ],
      [
        "pr",
        "oud"
      ],
      [
        "c",
        "l"
      ],
      [
        "he",
        "ard"
      ],
      [
        "t",
        "e"
      ],
      [
        "H",
        "is"
      ],
      [
        "re",
        "at"
      ],
      [
        "r",
        "un"
      ],
      [
        "o",
        "b"
      ],
      [
        "in",
        "k"
      ],
      [
        "p",
        "ick"
      ],
      [
        "i",
        "on"
      ],
      [
        "play",
        "ed"
      ],
      [
        "c",
        "le"
      ],
      [
        "t",
        "ried"
      ],
      [
        "F",
        "rom"
      ],
      [
        "b",
        "ro"
      ],
      [
        "d",
        "y"
      ],
      [
        "wa",
        "ter"
      ],
      [
        "t",
        "ter"
      ],
      [
        "j",
        "ust"
      ],
      [
        "l",
        "ed"
      ],
      [
        "i",
        "a"
      ],
      [
        "sm",
        "all"
      ],
      [
        "bo",
        "x"
      ],
      [
        "um",
        "p"
      ],
      [
        "wa",
        "t"
      ],
      [
        "f",
        "ly"
      ],
      [
        "c",
        "om"
      ],
      [
        "T",
        "hat"
      ],
      [
        "f",
        "low"
      ],
      [
        "e",
        "at"
      ],
      [
        "oug",
        "h"
      ],
      [
        "un",
        "t"
      ],
      [
        "hug",
        "ged"
      ],
      [
        "sor",
        "ry"
      ],
      [
        "ra",
        "bb"
      ],
      [
        "v",
        "ing"
      ],
      [
        "W",
        "hat"
      ],
      [
        "The",
        "n"
      ],
      [
        "l",
        "ad"
      ],
      [
        "ca",
        "use"
      ],
      [
        "t",
        "ry"
      ],
      [
        "c",
        "all"
      ],
      [
        "be",
        "cause"
      ],
      [
        "il",
        "e"
      ],
      [
        "ne",
        "ed"
      ],
      [
        "i",
        "z"
      ],
      [
        "re",
        "ad"
      ],
      [
        "c",
        "he"
      ],
      [
        "exp",
        "lo"
      ],
      [
        "h",
        "n"
      ],
      [
        "Jo",
        "hn"
      ],
      [
        "of",
        "f"
      ],
      [
        "p",
        "ret"
      ],
      [
        "be",
        "a"
      ],
      [
        "A",
        "nd"
      ],
      [
        "sh",
        "in"
      ],
      [
        "n",
        "ice"
      ],
      [
        "se",
        "lf"
      ],
      [
        "e",
        "ach"
      ],
      [
        "v",
        "ent"
      ],
      [
        "lo",
        "ve"
      ],
      [
        "b",
        "er"
      ],
      [
        "Y",
        "es"
      ],
      [
        "a",
        "ce"
      ],
      [
        "laug",
        "hed"
      ],
      [
        "be",
        "ar"
      ],
      [
        "than",
        "ked"
      ],
      [
        "unt",
        "il"
      ],
      [
        "man",
        "y"
      ],
      [
        "bea",
        "ut"
      ],
      [
        "p",
        "er"
      ],
      [
        "M",
        "ia"
      ],
      [
        "im",
        "al"
      ],
      [
        "d",
        "on"
      ],
      [
        "n",
        "ing"
      ],
      [
        "an",
        "imal"
      ],
      [
        "be",
        "st"
      ],
      [
        "t",
        "ing"
      ],
      [
        "it",
        "s"
      ],
      [
        "f",
        "i"
      ],
      [
        "B",
        "ob"
      ],
      [
        "fa",
        "st"
      ],
      [
        "e",
        "ven"
      ],
      [
        "k",
        "ind"
      ],
      [
        "s",
        "ur"
      ],
      [
        "be",
        "tter"
      ],
      [
        "am",
        "a"
      ],
      [
        "learn",
        "ed"
      ],
      [
        "g",
        "ard"
      ],
      [
        "b",
        "ra"
      ],
      [
        "gard",
        "en"
      ],
      [
        "i",
        "ful"
      ],
      [
        "beaut",
        "iful"
      ],
      [
        "p",
        "t"
      ],
      [
        "lo",
        "ts"
      ],
      [
        "jo",
        "y"
      ],
      [
        "w",
        "here"
      ],
      [
        "L",
        "uc"
      ],
      [
        "b",
        "ed"
      ],
      [
        "s",
        "ho"
      ],
      [
        "Luc",
        "y"
      ],
      [
        "Mom",
        "my"
      ],
      [
        "as",
        "s"
      ],
      [
        "y",
        "es"
      ],
      [
        "li",
        "ved"
      ],
      [
        "A",
        "s"
      ],
      [
        "r",
        "ong"
      ],
      [
        "f",
        "le"
      ],
      [
        "sk",
        "y"
      ],
      [
        "f",
        "in"
      ],
      [
        "f",
        "t"
      ],
      [
        "t",
        "wo"
      ],
      [
        "ig",
        "h"
      ],
      [
        "c",
        "hed"
      ],
      [
        "an",
        "k"
      ],
      [
        "call",
        "ed"
      ],
      [
        "w",
        "on"
      ],
      [
        "a",
        "pp"
      ],
      [
        "€",
        "™"
      ],
      [
        "el",
        "l"
      ],
      [
        "j",
        "ump"
      ],
      [
        "h",
        "ur"
      ],
      [
        "bo",
        "th"
      ],
      [
        "le",
        "t"
      ],
      [
        "ur",
        "n"
      ],
      [
        "sa",
        "fe"
      ],
      [
        "C",
        "an"
      ],
      [
        "ra",
        "in"
      ],
      [
        "st",
        "ill"
      ],
      [
        "gr",
        "ound"
      ],
      [
        "im",
        "p"
      ],
      [
        "un",
        "der"
      ],
      [
        "b",
        "le"
      ],
      [
        "f",
        "am"
      ],
      [
        "l",
        "oud"
      ],
      [
        "c",
        "on"
      ],
      [
        "s",
        "c"
      ],
      [
        "l",
        "ist"
      ],
      [
        "an",
        "e"
      ],
      [
        "A",
        "fter"
      ],
      [
        "st",
        "ay"
      ],
      [
        "sa",
        "y"
      ],
      [
        "n",
        "t"
      ],
      [
        "bra",
        "ve"
      ],
      [
        "T",
        "h"
      ],
      [
        "wal",
        "ked"
      ],
      [
        "sur",
        "pr"
      ],
      [
        "fle",
        "w"
      ],
      [
        "g",
        "ive"
      ],
      [
        "r",
        "u"
      ],
      [
        "i",
        "ed"
      ],
      [
        "so",
        "on"
      ],
      [
        "animal",
        "s"
      ],
      [
        "ke",
        "ep"
      ],
      [
        "ha",
        "rd"
      ],
      [
        "p",
        "u"
      ],
      [
        "s",
        "er"
      ],
      [
        "explo",
        "re"
      ],
      [
        "or",
        "t"
      ],
      [
        "in",
        "e"
      ],
      [
        "c",
        "t"
      ],
      [
        "op",
        "le"
      ],
      [
        "re",
        "pl"
      ],
      [
        "N",
        "o"
      ],
      [
        "go",
        "ing"
      ],
      [
        "Th",
        "ank"
      ],
      [
        "is",
        "ed"
      ],
      [
        "b",
        "ad"
      ],
      [
        "do",
        "ll"
      ],
      [
        "ke",
        "pt"
      ],
      [
        "um",
        "my"
      ],
      [
        "feel",
        "ing"
      ],
      [
        "is",
        "hed"
      ],
      [
        "sh",
        "ould"
      ],
      [
        "r",
        "m"
      ],
      [
        "bo",
        "ok"
      ],
      [
        "p",
        "ic"
      ],
      [
        "fam",
        "ily"
      ],
      [
        "m",
        "or"
      ],
      [
        "pe",
        "ople"
      ],
      [
        "le",
        "a"
      ],
      [
        "ad",
        "vent"
      ],
      [
        "ro",
        "w"
      ],
      [
        "do",
        "or"
      ],
      [
        "w",
        "in"
      ],
      [
        "il",
        "d"
      ],
      [
        "ic",
        "ed"
      ],
      [
        "be",
        "fore"
      ],
      [
        "c",
        "ry"
      ],
      [
        "wh",
        "ile"
      ],
      [
        "no",
        "dd"
      ],
      [
        "wal",
        "king"
      ],
      [
        "st",
        "e"
      ],
      [
        "il",
        "ly"
      ],
      [
        "f",
        "ar"
      ],
      [
        "sha",
        "re"
      ],
      [
        "shin",
        "y"
      ],
      [
        "c",
        "u"
      ],
      [
        "nodd",
        "ed"
      ],
      [
        "ang",
        "ry"
      ],
      [
        "op",
        "ened"
      ],
      [
        "re",
        "al"
      ],
      [
        "se",
        "t"
      ],
      [
        "D",
        "ad"
      ],
      [
        "r",
        "ight"
      ],
      [
        "hur",
        "t"
      ],
      [
        "pick",
        "ed"
      ],
      [
        "repl",
        "ied"
      ],
      [
        "pl",
        "ace"
      ],
      [
        "pret",
        "ty"
      ],
      [
        "v",
        "o"
      ],
      [
        "t",
        "re"
      ],
      [
        "lo",
        "t"
      ],
      [
        "d",
        "ra"
      ],
      [
        "sp",
        "o"
      ],
      [
        "cle",
        "an"
      ],
      [
        "po",
        "t"
      ],
      [
        "y",
        "ear"
      ],
      [
        "J",
        "ane"
      ],
      [
        "look",
        "ing"
      ],
      [
        "not",
        "iced"
      ],
      [
        "sto",
        "pped"
      ],
      [
        "t",
        "ure"
      ],
      [
        "no",
        "ise"
      ],
      [
        "ide",
        "a"
      ],
      [
        "f",
        "ish"
      ],
      [
        "m",
        "ber"
      ],
      [
        "li",
        "e"
      ],
      [
        "advent",
        "ure"
      ],
      [
        "ro",
        "ck"
      ],
      [
        "we",
        "et"
      ],
      [
        "g",
        "reat"
      ],
      [
        "s",
        "l"
      ],
      [
        "ha",
        "s"
      ],
      [
        "wor",
        "k"
      ],
      [
        "S",
        "ue"
      ],
      [
        "qu",
        "ick"
      ],
      [
        "g",
        "an"
      ],
      [
        "le",
        "s"
      ],
      [
        "ne",
        "x"
      ],
      [
        "p",
        "h"
      ],
      [
        "d",
        "is"
      ],
      [
        "lo",
        "ck"
      ],
      [
        "fa",
        "ce"
      ],
      [
        "L",
        "o"
      ],
      [
        "i",
        "ous"
      ],
      [
        "le",
        "ss"
      ],
      [
        "smil",
        "e"
      ],
      [
        "p",
        "ain"
      ],
      [
        "wal",
        "k"
      ],
      [
        "nex",
        "t"
      ],
      [
        "e",
        "ver"
      ],
      [
        "vo",
        "ice"
      ],
      [
        "en",
        "joy"
      ],
      [
        "ar",
        "t"
      ],
      [
        "me",
        "mber"
      ],
      [
        "us",
        "ed"
      ],
      [
        "n",
        "ight"
      ],
      [
        "r",
        "ing"
      ],
      [
        "co",
        "lo"
      ],
      [
        "ama",
        "z"
      ],
      [
        "tr",
        "uck"
      ],
      [
        "cl",
        "im"
      ],
      [
        "won",
        "der"
      ],
      [
        "pic",
        "ture"
      ],
      [
        "he",
        "ad"
      ],
      [
        "ug",
        "ht"
      ],
      [
        "e",
        "yes"
      ],
      [
        "as",
        "k"
      ],
      [
        "t",
        "urn"
      ],
      [
        "wa",
        "it"
      ],
      [
        "rabb",
        "it"
      ],
      [
        "quick",
        "ly"
      ],
      [
        "T",
        "his"
      ],
      [
        "be",
        "ing"
      ],
      [
        "a",
        "k"
      ],
      [
        "a",
        "fter"
      ],
      [
        "colo",
        "r"
      ],
      [
        "hand",
        "s"
      ],
      [
        "d",
        "if"
      ],
      [
        "re",
        "member"
      ],
      [
        "ir",
        "st"
      ],
      [
        "re",
        "st"
      ],
      [
        "wat",
        "ch"
      ],
      [
        "an",
        "c"
      ],
      [
        "is",
        "y"
      ],
      [
        "by",
        "e"
      ],
      [
        "th",
        "ree"
      ],
      [
        "ne",
        "ar"
      ],
      [
        "t",
        "al"
      ],
      [
        "n",
        "er"
      ],
      [
        "fore",
        "st"
      ],
      [
        "i",
        "p"
      ],
      [
        "t",
        "in"
      ],
      [
        "D",
        "o"
      ],
      [
        "g",
        "re"
      ],
      [
        "m",
        "on"
      ],
      [
        "fo",
        "od"
      ],
      [
        "bl",
        "ue"
      ],
      [
        "every",
        "one"
      ],
      [
        "flow",
        "er"
      ],
      [
        "flow",
        "ers"
      ],
      [
        "be",
        "en"
      ],
      [
        "clo",
        "ser"
      ],
      [
        "ol",
        "ly"
      ],
      [
        "cu",
        "ri"
      ],
      [
        "be",
        "came"
      ],
      [
        "st",
        "rong"
      ],
      [
        "list",
        "en"
      ],
      [
        "Lo",
        "ok"
      ],
      [
        "al",
        "so"
      ],
      [
        "es",
        "s"
      ],
      [
        "imp",
        "ort"
      ],
      [
        "m",
        "um"
      ],
      [
        "ay",
        "be"
      ],
      [
        "re",
        "am"
      ],
      [
        "s",
        "ure"
      ],
      [
        "ha",
        "ir"
      ],
      [
        "Jo",
        "e"
      ],
      [
        "r",
        "ough"
      ],
      [
        "sw",
        "ing"
      ],
      [
        "wat",
        "ched"
      ],
      [
        "f",
        "f"
      ],
      [
        "curi",
        "ous"
      ],
      [
        "show",
        "ed"
      ],
      [
        "iz",
        "ed"
      ],
      [
        "import",
        "ant"
      ],
      [
        "s",
        "ound"
      ],
      [
        "Sara",
        "h"
      ],
      [
        "th",
        "ink"
      ],
      [
        "m",
        "ag"
      ],
      [
        "wa",
        "rd"
      ],
      [
        "br",
        "ight"
      ],
      [
        "l",
        "low"
      ],
      [
        "st",
        "er"
      ],
      [
        "S",
        "pot"
      ],
      [
        "o",
        "wn"
      ],
      [
        "to",
        "p"
      ],
      [
        "ok",
        "ay"
      ],
      [
        "c",
        "ou"
      ],
      [
        "good",
        "bye"
      ],
      [
        "le",
        "ave"
      ],
      [
        "fe",
        "re"
      ],
      [
        "t",
        "ell"
      ],
      [
        "ir",
        "ed"
      ],
      [
        "fo",
        "llow"
      ],
      [
        "f",
        "ro"
      ],
      [
        "st",
        "ick"
      ],
      [
        "h",
        "igh"
      ],
      [
        "sto",
        "re"
      ],
      [
        "dif",
        "fere"
      ],
      [
        "a",
        "isy"
      ],
      [
        "lea",
        "se"
      ],
      [
        "laug",
        "h"
      ],
      [
        "p",
        "are"
      ],
      [
        "sl",
        "ide"
      ],
      [
        "b",
        "it"
      ],
      [
        "bo",
        "w"
      ],
      [
        "to",
        "r"
      ],
      [
        "bo",
        "at"
      ],
      [
        "an",
        "ce"
      ],
      [
        "f",
        "irst"
      ],
      [
        "st",
        "and"
      ],
      [
        "il",
        "a"
      ],
      [
        "b",
        "re"
      ],
      [
        "D",
        "on"
      ],
      [
        "er",
        "ed"
      ],
      [
        "on",
        "d"
      ],
      [
        "read",
        "y"
      ],
      [
        "y",
        "el"
      ],
      [
        "f",
        "l"
      ],
      [
        "s",
        "ing"
      ],
      [
        "b",
        "al"
      ],
      [
        "i",
        "es"
      ],
      [
        "wa",
        "rm"
      ],
      [
        "le",
        "ep"
      ],
      [
        "wor",
        "ld"
      ],
      [
        "g",
        "ame"
      ],
      [
        "be",
        "gan"
      ],
      [
        "differe",
        "nt"
      ],
      [
        "any",
        "more"
      ],
      [
        "I",
        "n"
      ],
      [
        "s",
        "n"
      ],
      [
        "p",
        "ul"
      ],
      [
        "S",
        "ally"
      ],
      [
        "but",
        "ter"
      ],
      [
        "ke",
        "t"
      ],
      [
        "me",
        "an"
      ],
      [
        "ac",
        "hed"
      ],
      [
        "L",
        "ila"
      ],
      [
        "g",
        "rabb"
      ],
      [
        "op",
        "en"
      ],
      [
        "D",
        "aisy"
      ],
      [
        "jump",
        "ed"
      ],
      [
        "l",
        "ight"
      ],
      [
        "m",
        "ed"
      ],
      [
        "sto",
        "ry"
      ],
      [
        "ri",
        "es"
      ],
      [
        "un",
        "g"
      ],
      [
        "dre",
        "ss"
      ],
      [
        "d",
        "in"
      ],
      [
        "as",
        "h"
      ],
      [
        "m",
        "is"
      ],
      [
        "z",
        "y"
      ],
      [
        "ho",
        "pped"
      ],
      [
        "grabb",
        "ed"
      ],
      [
        "s",
        "qu"
      ],
      [
        "th",
        "rough"
      ],
      [
        "t",
        "able"
      ],
      [
        "M",
        "olly"
      ],
      [
        "a",
        "ir"
      ],
      [
        "W",
        "h"
      ],
      [
        "happ",
        "ened"
      ],
      [
        "M",
        "aybe"
      ],
      [
        "f",
        "lo"
      ],
      [
        "re",
        "ally"
      ],
      [
        "p",
        "ar"
      ],
      [
        "and",
        "ma"
      ],
      [
        "ou",
        "ted"
      ],
      [
        "help",
        "ed"
      ],
      [
        "lad",
        "y"
      ],
      [
        "fa",
        "v"
      ],
      [
        "He",
        "l"
      ],
      [
        "nam",
        "e"
      ],
      [
        "Every",
        "one"
      ],
      [
        "tim",
        "es"
      ],
      [
        "co",
        "ok"
      ],
      [
        "s",
        "and"
      ],
      [
        "sh",
        "outed"
      ],
      [
        "un",
        "ny"
      ],
      [
        "b",
        "lock"
      ],
      [
        "ha",
        "ving"
      ],
      [
        "N",
        "ow"
      ],
      [
        "k",
        "it"
      ],
      [
        "fel",
        "l"
      ],
      [
        "d",
        "ro"
      ],
      [
        "q",
        "ue"
      ],
      [
        "fi",
        "re"
      ],
      [
        "g",
        "lad"
      ],
      [
        "c",
        "ake"
      ],
      [
        "p",
        "et"
      ],
      [
        "se",
        "en"
      ],
      [
        "t",
        "ired"
      ],
      [
        "on",
        "ly"
      ],
      [
        "year",
        "s"
      ],
      [
        "f",
        "ill"
      ],
      [
        "m",
        "ouse"
      ],
      [
        "wh",
        "y"
      ],
      [
        "de",
        "li"
      ],
      [
        "dra",
        "w"
      ],
      [
        "c",
        "hen"
      ],
      [
        "she",
        "d"
      ],
      [
        "mag",
        "ic"
      ],
      [
        "kit",
        "chen"
      ],
      [
        "gr",
        "ass"
      ],
      [
        "com",
        "ing"
      ],
      [
        "i",
        "ke"
      ],
      [
        "n",
        "ts"
      ],
      [
        "b",
        "or"
      ],
      [
        "he",
        "ar"
      ],
      [
        "wor",
        "ry"
      ],
      [
        "so",
        "ft"
      ],
      [
        "re",
        "ached"
      ],
      [
        "pare",
        "nts"
      ],
      [
        "i",
        "ent"
      ],
      [
        "bro",
        "ther"
      ],
      [
        "co",
        "l"
      ],
      [
        "d",
        "one"
      ],
      [
        "u",
        "ff"
      ],
      [
        "T",
        "o"
      ],
      [
        "we",
        "l"
      ],
      [
        "\"",
        "."
      ],
      [
        "m",
        "ar"
      ],
      [
        "wa",
        "ved"
      ],
      [
        "Tom",
        "my"
      ],
      [
        "E",
        "m"
      ],
      [
        "h",
        "ind"
      ],
      [
        "c",
        "ut"
      ],
      [
        "s",
        "ed"
      ],
      [
        "u",
        "ed"
      ],
      [
        "p",
        "ie"
      ],
      [
        "at",
        "er"
      ],
      [
        "p",
        "ond"
      ],
      [
        "bird",
        "s"
      ],
      [
        "fi",
        "x"
      ],
      [
        "k",
        "id"
      ],
      [
        "him",
        "self"
      ],
      [
        "surpr",
        "ise"
      ],
      [
        "a",
        "th"
      ],
      [
        "b",
        "ug"
      ],
      [
        "k",
        "en"
      ],
      [
        "s",
        "weet"
      ],
      [
        "be",
        "hind"
      ],
      [
        "sto",
        "p"
      ],
      [
        "pr",
        "in"
      ],
      [
        "The",
        "re"
      ],
      [
        "run",
        "ning"
      ],
      [
        "wo",
        "od"
      ],
      [
        "J",
        "im"
      ],
      [
        "co",
        "ld"
      ],
      [
        "ar",
        "y"
      ],
      [
        "mo",
        "ve"
      ],
      [
        "m",
        "er"
      ],
      [
        "p",
        "ed"
      ],
      [
        "do",
        "w"
      ],
      [
        "happ",
        "ily"
      ],
      [
        "a",
        "ge"
      ],
      [
        "real",
        "ized"
      ],
      [
        "F",
        "in"
      ],
      [
        "y",
        "ummy"
      ],
      [
        "t",
        "ra"
      ],
      [
        "W",
        "ow"
      ],
      [
        "b",
        "unny"
      ],
      [
        "wor",
        "ked"
      ],
      [
        "gre",
        "en"
      ],
      [
        "d",
        "ark"
      ],
      [
        "fro",
        "g"
      ],
      [
        "fav",
        "or"
      ],
      [
        "c",
        "ra"
      ],
      [
        "st",
        "ran"
      ],
      [
        "cat",
        "ch"
      ],
      [
        "re",
        "l"
      ],
      [
        "favor",
        "ite"
      ],
      [
        "deli",
        "c"
      ],
      [
        "p",
        "rom"
      ],
      [
        "fun",
        "ny"
      ],
      [
        "sw",
        "im"
      ],
      [
        "A",
        "t"
      ],
      [
        "bo",
        "t"
      ],
      [
        "J",
        "en"
      ],
      [
        "g",
        "er"
      ],
      [
        "do",
        "es"
      ],
      [
        "d",
        "s"
      ],
      [
        "clo",
        "se"
      ],
      [
        "p",
        "ro"
      ],
      [
        "ma",
        "king"
      ],
      [
        "yel",
        "low"
      ],
      [
        "careful",
        "ly"
      ],
      [
        "to",
        "uch"
      ],
      [
        "mo",
        "ther"
      ],
      [
        "ful",
        "l"
      ],
      [
        "con",
        "tin"
      ],
      [
        "ra",
        "ce"
      ],
      [
        "Ben",
        "ny"
      ],
      [
        "li",
        "on"
      ],
      [
        "re",
        "ed"
      ],
      [
        "pie",
        "ce"
      ],
      [
        "d",
        "uck"
      ],
      [
        "ab",
        "y"
      ],
      [
        "look",
        "s"
      ],
      [
        "an",
        "other"
      ],
      [
        "ar",
        "ri"
      ],
      [
        "at",
        "ion"
      ],
      [
        "enjoy",
        "ed"
      ],
      [
        "J",
        "ill"
      ],
      [
        "sa",
        "t"
      ],
      [
        "ig",
        "n"
      ],
      [
        "remember",
        "ed"
      ],
      [
        "w",
        "ind"
      ],
      [
        "c",
        "or"
      ],
      [
        "ke",
        "y"
      ],
      [
        "f",
        "r"
      ],
      [
        "pl",
        "an"
      ],
      [
        "ca",
        "st"
      ],
      [
        "any",
        "thing"
      ],
      [
        "wonder",
        "ful"
      ],
      [
        "p",
        "re"
      ],
      [
        "s",
        "low"
      ],
      [
        "w",
        "er"
      ],
      [
        "and",
        "y"
      ],
      [
        "Hel",
        "lo"
      ],
      [
        "c",
        "ried"
      ],
      [
        "tre",
        "es"
      ],
      [
        "do",
        "ing"
      ],
      [
        "b",
        "ag"
      ],
      [
        "w",
        "rong"
      ],
      [
        "ho",
        "le"
      ],
      [
        "pret",
        "end"
      ],
      [
        "butter",
        "fly"
      ],
      [
        "ag",
        "reed"
      ],
      [
        "dre",
        "am"
      ],
      [
        "kid",
        "s"
      ],
      [
        "c",
        "la"
      ],
      [
        "y",
        "ard"
      ],
      [
        "we",
        "ar"
      ],
      [
        "one",
        "y"
      ],
      [
        "bu",
        "y"
      ],
      [
        "o",
        "o"
      ],
      [
        "her",
        "self"
      ],
      [
        "d",
        "ri"
      ],
      [
        "se",
        "es"
      ],
      [
        "clim",
        "b"
      ],
      [
        "than",
        "k"
      ],
      [
        "fin",
        "ished"
      ],
      [
        "p",
        "le"
      ],
      [
        "s",
        "leep"
      ],
      [
        "friend",
        "ly"
      ],
      [
        "m",
        "et"
      ],
      [
        "t",
        "all"
      ],
      [
        "pp",
        "y"
      ],
      [
        "contin",
        "ued"
      ],
      [
        "h",
        "ill"
      ],
      [
        "co",
        "ol"
      ],
      [
        "block",
        "s"
      ],
      [
        "bu",
        "ild"
      ],
      [
        "fill",
        "ed"
      ],
      [
        "surpr",
        "ised"
      ],
      [
        "arri",
        "ved"
      ],
      [
        "t",
        "le"
      ],
      [
        "le",
        "ft"
      ],
      [
        "mo",
        "st"
      ],
      [
        "need",
        "ed"
      ],
      [
        "less",
        "on"
      ],
      [
        "he",
        "ld"
      ],
      [
        "ch",
        "il"
      ],
      [
        "h",
        "id"
      ],
      [
        "e",
        "m"
      ],
      [
        "fa",
        "ir"
      ],
      [
        "c",
        "reat"
      ],
      [
        "Fin",
        "ally"
      ],
      [
        "dre",
        "n"
      ],
      [
        "lo",
        "st"
      ],
      [
        "A",
        "my"
      ],
      [
        "w",
        "ished"
      ],
      [
        "win",
        "dow"
      ],
      [
        "chil",
        "dren"
      ],
      [
        "m",
        "ess"
      ],
      [
        "ar",
        "m"
      ],
      [
        "ho",
        "ld"
      ],
      [
        "spo",
        "t"
      ],
      [
        "B",
        "illy"
      ],
      [
        "g",
        "ent"
      ],
      [
        "get",
        "ting"
      ],
      [
        "car",
        "s"
      ],
      [
        "v",
        "is"
      ],
      [
        "as",
        "ure"
      ],
      [
        "ie",
        "ld"
      ],
      [
        "s",
        "now"
      ],
      [
        "mom",
        "ent"
      ],
      [
        "flo",
        "or"
      ],
      [
        "c",
        "ho"
      ],
      [
        "in",
        "ed"
      ],
      [
        "Wh",
        "y"
      ],
      [
        "b",
        "ar"
      ],
      [
        "mor",
        "ning"
      ],
      [
        "en",
        "s"
      ],
      [
        "en",
        "ough"
      ],
      [
        "ward",
        "s"
      ],
      [
        "g",
        "u"
      ],
      [
        "r",
        "ay"
      ],
      [
        "follow",
        "ed"
      ],
      [
        "some",
        "one"
      ],
      [
        "po",
        "in"
      ],
      [
        "bro",
        "ken"
      ],
      [
        "ro",
        "ss"
      ],
      [
        "try",
        "ing"
      ],
      [
        "g",
        "on"
      ],
      [
        "t",
        "ight"
      ],
      [
        "fe",
        "ct"
      ],
      [
        "fo",
        "x"
      ],
      [
        "cast",
        "le"
      ],
      [
        "m",
        "at"
      ],
      [
        "din",
        "ner"
      ],
      [
        "z",
        "e"
      ],
      [
        "ta",
        "st"
      ],
      [
        "delic",
        "ious"
      ],
      [
        "p",
        "lease"
      ],
      [
        "a",
        "v"
      ],
      [
        "m",
        "ou"
      ],
      [
        "stran",
        "ge"
      ],
      [
        "per",
        "fect"
      ],
      [
        "er",
        "ous"
      ],
      [
        "ing",
        "s"
      ],
      [
        "br",
        "ought"
      ],
      [
        "g",
        "one"
      ],
      [
        "h",
        "ung"
      ],
      [
        "amaz",
        "ing"
      ],
      [
        "a",
        "ther"
      ],
      [
        "ce",
        "ss"
      ],
      [
        "fe",
        "w"
      ],
      [
        "m",
        "ight"
      ],
      [
        "b",
        "aby"
      ],
      [
        "for",
        "got"
      ],
      [
        "d",
        "anc"
      ],
      [
        "fin",
        "ally"
      ],
      [
        "G",
        "r"
      ],
      [
        "wood",
        "s"
      ],
      [
        "g",
        "l"
      ],
      [
        "s",
        "ong"
      ],
      [
        "c",
        "ha"
      ],
      [
        "m",
        "us"
      ],
      [
        "ir",
        "rel"
      ],
      [
        "an",
        "ge"
      ],
      [
        "de",
        "ep"
      ],
      [
        "f",
        "ight"
      ],
      [
        "ro",
        "ll"
      ],
      [
        "be",
        "ach"
      ],
      [
        "t",
        "ri"
      ],
      [
        "sa",
        "il"
      ],
      [
        "under",
        "stand"
      ],
      [
        "uff",
        "y"
      ],
      [
        "p",
        "at"
      ],
      [
        "ou",
        "p"
      ],
      [
        "d",
        "ir"
      ],
      [
        "pa",
        "per"
      ],
      [
        "lo",
        "on"
      ],
      [
        "el",
        "se"
      ],
      [
        "ta",
        "il"
      ],
      [
        "leave",
        "s"
      ],
      [
        "bal",
        "loon"
      ],
      [
        "pp",
        "ing"
      ],
      [
        "squ",
        "irrel"
      ],
      [
        "ck",
        "ed"
      ],
      [
        "c",
        "ream"
      ],
      [
        "m",
        "i"
      ],
      [
        "co",
        "ver"
      ],
      [
        "other",
        "s"
      ],
      [
        "s",
        "it"
      ],
      [
        "scar",
        "y"
      ],
      [
        "wh",
        "ite"
      ],
      [
        "app",
        "ear"
      ],
      [
        "k",
        "no"
      ],
      [
        "t",
        "rain"
      ],
      [
        "cl",
        "oud"
      ],
      [
        "l",
        "and"
      ],
      [
        "C",
        "ome"
      ],
      [
        "dad",
        "dy"
      ],
      [
        "M",
        "ama"
      ],
      [
        "every",
        "thing"
      ],
      [
        "r",
        "ide"
      ],
      [
        "ic",
        "y"
      ],
      [
        "pl",
        "ain"
      ],
      [
        "turn",
        "ed"
      ],
      [
        "f",
        "ur"
      ],
      [
        "tal",
        "k"
      ],
      [
        "bre",
        "ak"
      ],
      [
        "w",
        "he"
      ],
      [
        "b",
        "ike"
      ],
      [
        "was",
        "n"
      ],
      [
        "ve",
        "s"
      ],
      [
        "like",
        "s"
      ],
      [
        "book",
        "s"
      ],
      [
        "p",
        "ink"
      ],
      [
        "s",
        "pl"
      ],
      [
        "color",
        "s"
      ],
      [
        "ho",
        "t"
      ],
      [
        "amaz",
        "ed"
      ],
      [
        "al",
        "one"
      ],
      [
        "Jim",
        "my"
      ],
      [
        "wa",
        "ited"
      ],
      [
        "picture",
        "s"
      ],
      [
        "o",
        "se"
      ],
      [
        "fly",
        "ing"
      ],
      [
        "p",
        "en"
      ],
      [
        "at",
        "ed"
      ],
      [
        "So",
        "on"
      ],
      [
        "stay",
        "ed"
      ],
      [
        "p",
        "ack"
      ],
      [
        "b",
        "us"
      ],
      [
        "n",
        "g"
      ],
      [
        "sp",
        "ark"
      ],
      [
        "jo",
        "b"
      ],
      [
        "mor",
        "al"
      ],
      [
        "O",
        "h"
      ],
      [
        "e",
        "le"
      ],
      [
        "se",
        "ar"
      ],
      [
        "pain",
        "t"
      ],
      [
        "list",
        "ened"
      ],
      [
        "h",
        "or"
      ],
      [
        "some",
        "times"
      ],
      [
        "d",
        "ang"
      ],
      [
        "prom",
        "ised"
      ],
      [
        "A",
        "ll"
      ],
      [
        "g",
        "row"
      ],
      [
        "k",
        "ay"
      ],
      [
        "be",
        "lie"
      ],
      [
        "s",
        "is"
      ],
      [
        "u",
        "ally"
      ],
      [
        "li",
        "ce"
      ],
      [
        "S",
        "ome"
      ],
      [
        "d",
        "r"
      ],
      [
        "th",
        "y"
      ],
      [
        "mus",
        "ic"
      ],
      [
        "J",
        "ust"
      ],
      [
        "clim",
        "bed"
      ],
      [
        "G",
        "o"
      ],
      [
        "wa",
        "ll"
      ],
      [
        "be",
        "e"
      ],
      [
        "sha",
        "red"
      ],
      [
        "p",
        "es"
      ],
      [
        "to",
        "wards"
      ],
      [
        "h",
        "ide"
      ],
      [
        "the",
        "s"
      ],
      [
        "hung",
        "ry"
      ],
      [
        "f",
        "all"
      ],
      [
        "f",
        "ield"
      ],
      [
        "gr",
        "andma"
      ],
      [
        "l",
        "ake"
      ],
      [
        "li",
        "ving"
      ],
      [
        "uck",
        "y"
      ],
      [
        "clo",
        "thes"
      ],
      [
        "H",
        "i"
      ],
      [
        "bo",
        "ard"
      ],
      [
        "big",
        "ger"
      ],
      [
        "d",
        "es"
      ],
      [
        "make",
        "s"
      ],
      [
        "se",
        "c"
      ],
      [
        "we",
        "t"
      ],
      [
        "t",
        "w"
      ],
      [
        "ste",
        "pped"
      ],
      [
        "d",
        "ance"
      ],
      [
        "w",
        "his"
      ],
      [
        "slow",
        "ly"
      ],
      [
        "an",
        "sw"
      ],
      [
        "re",
        "w"
      ],
      [
        "m",
        "ent"
      ],
      [
        "p",
        "ers"
      ],
      [
        "B",
        "e"
      ],
      [
        "vis",
        "it"
      ],
      [
        "o",
        "t"
      ],
      [
        "s",
        "u"
      ],
      [
        "s",
        "y"
      ],
      [
        "wan",
        "ts"
      ],
      [
        "b",
        "ath"
      ],
      [
        "am",
        "es"
      ],
      [
        "m",
        "ust"
      ],
      [
        "ck",
        "et"
      ],
      [
        "m",
        "u"
      ],
      [
        "pu",
        "ppy"
      ],
      [
        "m",
        "ind"
      ],
      [
        "magic",
        "al"
      ],
      [
        "en",
        "ce"
      ],
      [
        "s",
        "illy"
      ],
      [
        "ne",
        "igh"
      ],
      [
        "M",
        "um"
      ],
      [
        "Dad",
        "dy"
      ],
      [
        "pul",
        "led"
      ],
      [
        "mi",
        "x"
      ],
      [
        "i",
        "ch"
      ],
      [
        "he",
        "av"
      ],
      [
        "fast",
        "er"
      ],
      [
        "g",
        "g"
      ],
      [
        "z",
        "z"
      ],
      [
        "ask",
        "s"
      ],
      [
        "jo",
        "in"
      ],
      [
        "smil",
        "es"
      ],
      [
        "tre",
        "asure"
      ],
      [
        "p",
        "ass"
      ],
      [
        "s",
        "wa"
      ],
      [
        "j",
        "u"
      ],
      [
        "p",
        "ur"
      ],
      [
        "gr",
        "ate"
      ],
      [
        "ph",
        "one"
      ],
      [
        "grate",
        "ful"
      ],
      [
        "b",
        "uck"
      ],
      [
        "c",
        "up"
      ],
      [
        "ha",
        "r"
      ],
      [
        "far",
        "mer"
      ],
      [
        "cry",
        "ing"
      ],
      [
        "swa",
        "m"
      ],
      [
        "mon",
        "ster"
      ],
      [
        "par",
        "ty"
      ],
      [
        "d",
        "ry"
      ],
      [
        "help",
        "ing"
      ],
      [
        "wor",
        "ried"
      ],
      [
        "na",
        "p"
      ],
      [
        "bl",
        "ack"
      ],
      [
        "ele",
        "ph"
      ],
      [
        "heav",
        "y"
      ],
      [
        "on",
        "s"
      ],
      [
        "vent",
        "ually"
      ],
      [
        "appear",
        "ed"
      ],
      [
        "b",
        "ran"
      ],
      [
        "c",
        "tor"
      ],
      [
        "bl",
        "an"
      ],
      [
        "w",
        "r"
      ],
      [
        "ac",
        "ross"
      ],
      [
        "piece",
        "s"
      ],
      [
        "belie",
        "ve"
      ],
      [
        "sis",
        "ter"
      ],
      [
        "T",
        "weet"
      ],
      [
        "g",
        "i"
      ],
      [
        "j",
        "e"
      ],
      [
        "re",
        "ach"
      ],
      [
        "ex",
        "plain"
      ],
      [
        "M",
        "r"
      ],
      [
        "dra",
        "gon"
      ],
      [
        "dang",
        "erous"
      ],
      [
        "S",
        "ure"
      ],
      [
        "s",
        "uch"
      ],
      [
        "it",
        "ing"
      ],
      [
        "ted",
        "dy"
      ],
      [
        "sm",
        "el"
      ],
      [
        "cook",
        "ies"
      ],
      [
        "M",
        "ary"
      ],
      [
        "O",
        "K"
      ],
      [
        "a",
        "f"
      ],
      [
        "l",
        "one"
      ],
      [
        "to",
        "n"
      ],
      [
        "doll",
        "s"
      ],
      [
        "lone",
        "ly"
      ],
      [
        "g",
        "if"
      ],
      [
        "ig",
        "g"
      ],
      [
        "color",
        "ful"
      ],
      [
        "wor",
        "ds"
      ],
      [
        "explo",
        "ring"
      ],
      [
        "O",
        "kay"
      ],
      [
        "t",
        "reat"
      ],
      [
        "or",
        "ange"
      ],
      [
        "pp",
        "er"
      ],
      [
        "d",
        "el"
      ],
      [
        "sec",
        "ret"
      ],
      [
        "m",
        "in"
      ],
      [
        "is",
        "es"
      ],
      [
        "Em",
        "ma"
      ],
      [
        "gent",
        "le"
      ],
      [
        "m",
        "oney"
      ],
      [
        "st",
        "uck"
      ],
      [
        "bro",
        "ke"
      ],
      [
        "ro",
        "wn"
      ],
      [
        "co",
        "in"
      ],
      [
        "clo",
        "sed"
      ],
      [
        "ow",
        "l"
      ],
      [
        "id",
        "ent"
      ],
      [
        "with",
        "out"
      ],
      [
        "cla",
        "pped"
      ],
      [
        "i",
        "re"
      ],
      [
        "l",
        "ing"
      ],
      [
        "th",
        "ough"
      ],
      [
        "ne",
        "y"
      ],
      [
        "every",
        "where"
      ],
      [
        "mou",
        "th"
      ],
      [
        "sa",
        "me"
      ],
      [
        "se",
        "s"
      ],
      [
        "h",
        "ig"
      ],
      [
        "p",
        "s"
      ],
      [
        "you",
        "ng"
      ],
      [
        "Gr",
        "andma"
      ],
      [
        "F",
        "l"
      ],
      [
        "c",
        "andy"
      ],
      [
        "i",
        "et"
      ],
      [
        "he",
        "al"
      ],
      [
        "our",
        "se"
      ],
      [
        "shin",
        "e"
      ],
      [
        "s",
        "uddenly"
      ],
      [
        "ri",
        "ver"
      ],
      [
        "do",
        "ctor"
      ],
      [
        "P",
        "e"
      ],
      [
        "f",
        "ree"
      ],
      [
        "sto",
        "ne"
      ],
      [
        "sto",
        "od"
      ],
      [
        "see",
        "med"
      ],
      [
        "sn",
        "ack"
      ],
      [
        "t",
        "ent"
      ],
      [
        "to",
        "wn"
      ],
      [
        "ou",
        "n"
      ],
      [
        "happ",
        "en"
      ],
      [
        "eat",
        "ing"
      ],
      [
        "a",
        "p"
      ],
      [
        "k",
        "ite"
      ],
      [
        "he",
        "s"
      ],
      [
        "star",
        "t"
      ],
      [
        "buck",
        "et"
      ],
      [
        "te",
        "ac"
      ],
      [
        "a",
        "se"
      ],
      [
        "qu",
        "iet"
      ],
      [
        "long",
        "er"
      ],
      [
        "app",
        "le"
      ],
      [
        "blan",
        "ket"
      ],
      [
        "sho",
        "p"
      ],
      [
        "eleph",
        "ant"
      ],
      [
        "f",
        "used"
      ],
      [
        "s",
        "ign"
      ],
      [
        "M",
        "y"
      ],
      [
        "un",
        "ch"
      ],
      [
        "b",
        "ite"
      ],
      [
        "s",
        "ent"
      ],
      [
        "ho",
        "ol"
      ],
      [
        "sc",
        "hool"
      ],
      [
        "itt",
        "y"
      ],
      [
        "che",
        "ered"
      ],
      [
        "In",
        "side"
      ],
      [
        "hig",
        "her"
      ],
      [
        "se",
        "a"
      ],
      [
        "sho",
        "es"
      ],
      [
        "sc",
        "ream"
      ],
      [
        "Fl",
        "uffy"
      ],
      [
        "to",
        "day"
      ],
      [
        "tin",
        "y"
      ],
      [
        "c",
        "ourse"
      ],
      [
        "M",
        "ummy"
      ],
      [
        "b",
        "as"
      ],
      [
        "g",
        "ra"
      ],
      [
        "t",
        "win"
      ],
      [
        "re",
        "lie"
      ],
      [
        "ho",
        "ped"
      ],
      [
        "cou",
        "n"
      ],
      [
        "c",
        "hair"
      ],
      [
        "ch",
        "ild"
      ],
      [
        "ac",
        "c"
      ],
      [
        "com",
        "for"
      ],
      [
        "adventure",
        "s"
      ],
      [
        "up",
        "set"
      ],
      [
        "ul",
        "l"
      ],
      [
        "would",
        "n"
      ],
      [
        "wel",
        "come"
      ],
      [
        "f",
        "ru"
      ],
      [
        "j",
        "our"
      ],
      [
        "st",
        "u"
      ],
      [
        "car",
        "ry"
      ],
      [
        "our",
        "s"
      ],
      [
        "bro",
        "wn"
      ],
      [
        "br",
        "ing"
      ],
      [
        "ion",
        "s"
      ],
      [
        "dir",
        "ty"
      ],
      [
        "r",
        "ound"
      ],
      [
        "al",
        "ong"
      ],
      [
        "own",
        "er"
      ],
      [
        "ca",
        "ve"
      ],
      [
        "po",
        "cket"
      ],
      [
        "Sam",
        "my"
      ],
      [
        "ste",
        "ad"
      ],
      [
        "near",
        "by"
      ],
      [
        "acc",
        "ident"
      ],
      [
        "p",
        "ra"
      ],
      [
        "th",
        "rew"
      ],
      [
        "dro",
        "ve"
      ],
      [
        "twin",
        "s"
      ],
      [
        "P",
        "lease"
      ],
      [
        "po",
        "wer"
      ],
      [
        "pu",
        "shed"
      ],
      [
        "prin",
        "cess"
      ],
      [
        "fair",
        "y"
      ],
      [
        "bas",
        "ket"
      ],
      [
        "c",
        "ray"
      ],
      [
        "k",
        "is"
      ],
      [
        "teac",
        "her"
      ],
      [
        "v",
        "al"
      ],
      [
        "mo",
        "ved"
      ],
      [
        "ca",
        "ught"
      ],
      [
        "L",
        "ater"
      ],
      [
        "d",
        "a"
      ],
      [
        "back",
        "yard"
      ],
      [
        "think",
        "s"
      ],
      [
        "explain",
        "ed"
      ],
      [
        "e",
        "k"
      ],
      [
        "we",
        "ll"
      ],
      [
        "na",
        "ught"
      ],
      [
        "st",
        "re"
      ],
      [
        "Em",
        "ily"
      ],
      [
        "Jen",
        "ny"
      ],
      [
        "w",
        "ise"
      ],
      [
        "dro",
        "pped"
      ],
      [
        "t",
        "en"
      ],
      [
        "ro",
        "t"
      ],
      [
        "bow",
        "l"
      ],
      [
        "g",
        "ames"
      ],
      [
        "w",
        "ings"
      ],
      [
        "po",
        "l"
      ],
      [
        "sun",
        "ny"
      ],
      [
        "ta",
        "king"
      ],
      [
        "naught",
        "y"
      ],
      [
        "m",
        "ing"
      ],
      [
        "wo",
        "ke"
      ],
      [
        "relie",
        "ved"
      ],
      [
        "i",
        "ble"
      ],
      [
        "l",
        "unch"
      ],
      [
        "w",
        "ish"
      ],
      [
        "st",
        "r"
      ],
      [
        "que",
        "st"
      ],
      [
        "to",
        "uc"
      ],
      [
        "pu",
        "sh"
      ],
      [
        "pul",
        "l"
      ],
      [
        "m",
        "ine"
      ],
      [
        "s",
        "oup"
      ],
      [
        "to",
        "wer"
      ],
      [
        "li",
        "fe"
      ],
      [
        "sm",
        "art"
      ],
      [
        "laugh",
        "ing"
      ],
      [
        "it",
        "ch"
      ],
      [
        "b",
        "oun"
      ],
      [
        "l",
        "ate"
      ],
      [
        "be",
        "long"
      ],
      [
        "rain",
        "bow"
      ],
      [
        "swing",
        "s"
      ],
      [
        "d",
        "ist"
      ],
      [
        "he",
        "art"
      ],
      [
        "v",
        "ill"
      ],
      [
        "sh",
        "ip"
      ],
      [
        "ro",
        "ar"
      ],
      [
        "ear",
        "s"
      ],
      [
        "che",
        "s"
      ],
      [
        "bu",
        "sh"
      ],
      [
        "no",
        "thing"
      ],
      [
        "ad",
        "d"
      ],
      [
        "star",
        "s"
      ],
      [
        "sho",
        "ok"
      ],
      [
        "ma",
        "il"
      ],
      [
        "tr",
        "ou"
      ],
      [
        "touc",
        "hed"
      ],
      [
        "itt",
        "ing"
      ],
      [
        "sm",
        "ell"
      ],
      [
        "c",
        "al"
      ],
      [
        "pa",
        "st"
      ],
      [
        "bus",
        "y"
      ],
      [
        "b",
        "en"
      ],
      [
        "my",
        "ster"
      ],
      [
        "cover",
        "ed"
      ],
      [
        "The",
        "ir"
      ],
      [
        "rock",
        "s"
      ],
      [
        "s",
        "ang"
      ],
      [
        "ne",
        "e"
      ],
      [
        "exc",
        "iting"
      ],
      [
        "le",
        "g"
      ],
      [
        "run",
        "s"
      ],
      [
        "pa",
        "th"
      ],
      [
        "th",
        "row"
      ],
      [
        "iz",
        "e"
      ],
      [
        "nt",
        "ain"
      ],
      [
        "c",
        "ir"
      ],
      [
        "g",
        "ged"
      ],
      [
        "p",
        "il"
      ],
      [
        "œ",
        "I"
      ],
      [
        "day",
        "s"
      ],
      [
        "smil",
        "ing"
      ],
      [
        "pe",
        "ace"
      ],
      [
        "To",
        "gether"
      ],
      [
        "neigh",
        "bor"
      ],
      [
        "ne",
        "t"
      ],
      [
        "no",
        "ises"
      ],
      [
        "but",
        "ton"
      ],
      [
        "co",
        "zy"
      ],
      [
        "J",
        "ake"
      ],
      [
        "s",
        "ick"
      ],
      [
        "at",
        "t"
      ],
      [
        "ught",
        "er"
      ],
      [
        "W",
        "ith"
      ],
      [
        "sha",
        "pes"
      ],
      [
        "T",
        "ed"
      ],
      [
        "W",
        "here"
      ],
      [
        "sing",
        "ing"
      ],
      [
        "pre",
        "sent"
      ],
      [
        "creat",
        "ure"
      ],
      [
        "hold",
        "ing"
      ],
      [
        "e",
        "as"
      ],
      [
        "t",
        "un"
      ],
      [
        "for",
        "get"
      ],
      [
        "watch",
        "ing"
      ],
      [
        "swim",
        "ming"
      ],
      [
        "tast",
        "ed"
      ],
      [
        "i",
        "er"
      ],
      [
        "o",
        "om"
      ],
      [
        "p",
        "udd"
      ],
      [
        "t",
        "ur"
      ],
      [
        "in",
        "te"
      ],
      [
        "feel",
        "s"
      ],
      [
        "rest",
        "ing"
      ],
      [
        "ir",
        "t"
      ],
      [
        "ne",
        "ck"
      ],
      [
        "am",
        "p"
      ],
      [
        "itt",
        "en"
      ],
      [
        "take",
        "s"
      ],
      [
        "bran",
        "ch"
      ],
      [
        "f",
        "it"
      ],
      [
        "h",
        "u"
      ],
      [
        "wa",
        "r"
      ],
      [
        "ge",
        "st"
      ],
      [
        "dr",
        "ink"
      ],
      [
        "n",
        "ic"
      ],
      [
        "cut",
        "e"
      ],
      [
        "hor",
        "se"
      ],
      [
        "jour",
        "ney"
      ],
      [
        "lo",
        "g"
      ],
      [
        "ec",
        "t"
      ],
      [
        "sun",
        "shine"
      ],
      [
        "turn",
        "s"
      ],
      [
        "mon",
        "key"
      ],
      [
        "poin",
        "ted"
      ],
      [
        "e",
        "ag"
      ],
      [
        "s",
        "co"
      ],
      [
        "w",
        "and"
      ],
      [
        "th",
        "day"
      ],
      [
        "pl",
        "ane"
      ],
      [
        "li",
        "ve"
      ],
      [
        "sha",
        "r"
      ],
      [
        "wonder",
        "ed"
      ],
      [
        "danc",
        "ed"
      ],
      [
        "pat",
        "ient"
      ],
      [
        "da",
        "ughter"
      ],
      [
        "hu",
        "ge"
      ],
      [
        "ne",
        "st"
      ],
      [
        "ne",
        "ss"
      ],
      [
        "Go",
        "od"
      ],
      [
        "O",
        "f"
      ],
      [
        "j",
        "ar"
      ],
      [
        "l",
        "ar"
      ],
      [
        "p",
        "ig"
      ],
      [
        "le",
        "tter"
      ],
      [
        "im",
        "ag"
      ],
      [
        "no",
        "se"
      ],
      [
        "ac",
        "t"
      ],
      [
        "dri",
        "ver"
      ],
      [
        "s",
        "itting"
      ],
      [
        "bo",
        "dy"
      ],
      [
        "ret",
        "urn"
      ],
      [
        "ju",
        "ice"
      ],
      [
        "pra",
        "ct"
      ],
      [
        "b",
        "ought"
      ],
      [
        "i",
        "pped"
      ],
      [
        "id",
        "ge"
      ],
      [
        "He",
        "y"
      ],
      [
        "she",
        "s"
      ],
      [
        "hel",
        "lo"
      ],
      [
        "gr",
        "and"
      ],
      [
        "ep",
        "end"
      ],
      [
        "hug",
        "s"
      ],
      [
        "come",
        "s"
      ],
      [
        "cloud",
        "s"
      ],
      [
        "sp",
        "in"
      ],
      [
        "cra",
        "w"
      ],
      [
        "gif",
        "t"
      ],
      [
        "c",
        "has"
      ],
      [
        "e",
        "y"
      ],
      [
        "t",
        "u"
      ],
      [
        "car",
        "d"
      ],
      [
        "bot",
        "tle"
      ],
      [
        "b",
        "and"
      ],
      [
        "f",
        "ence"
      ],
      [
        "on",
        "to"
      ],
      [
        "or",
        "gan"
      ],
      [
        "jo",
        "ke"
      ],
      [
        "any",
        "one"
      ],
      [
        "accident",
        "ally"
      ],
      [
        "A",
        "lice"
      ],
      [
        "sa",
        "ck"
      ],
      [
        "ra",
        "id"
      ],
      [
        "bir",
        "thday"
      ],
      [
        "iz",
        "z"
      ],
      [
        "vill",
        "age"
      ],
      [
        "g",
        "igg"
      ],
      [
        "ce",
        "le"
      ],
      [
        "ro",
        "bot"
      ],
      [
        "see",
        "k"
      ],
      [
        "de",
        "st"
      ],
      [
        "sound",
        "s"
      ],
      [
        "arm",
        "s"
      ],
      [
        "af",
        "raid"
      ],
      [
        "itt",
        "ens"
      ],
      [
        "John",
        "ny"
      ],
      [
        "m",
        "ach"
      ],
      [
        "sp",
        "id"
      ],
      [
        "fore",
        "ver"
      ],
      [
        "love",
        "ly"
      ],
      [
        "inte",
        "resting"
      ],
      [
        "e",
        "e"
      ],
      [
        "in",
        "stead"
      ],
      [
        "on",
        "t"
      ],
      [
        "be",
        "l"
      ],
      [
        "bu",
        "bb"
      ],
      [
        "col",
        "le"
      ],
      [
        "fr",
        "ont"
      ],
      [
        "roll",
        "ed"
      ],
      [
        "s",
        "li"
      ],
      [
        "wh",
        "ich"
      ],
      [
        "snow",
        "man"
      ],
      [
        "min",
        "ut"
      ],
      [
        "stre",
        "et"
      ],
      [
        "f",
        "ing"
      ],
      [
        "g",
        "y"
      ],
      [
        "l",
        "ucky"
      ],
      [
        "ran",
        "k"
      ],
      [
        "spo",
        "on"
      ],
      [
        "pur",
        "ple"
      ],
      [
        "ben",
        "ch"
      ],
      [
        "c",
        "ed"
      ],
      [
        "th",
        "in"
      ],
      [
        "sto",
        "ries"
      ],
      [
        "build",
        "ing"
      ],
      [
        "K",
        "itty"
      ],
      [
        "m",
        "ad"
      ],
      [
        "s",
        "uc"
      ],
      [
        "w",
        "ra"
      ],
      [
        "was",
        "h"
      ],
      [
        "sh",
        "r"
      ],
      [
        "po",
        "ol"
      ],
      [
        "bl",
        "ed"
      ],
      [
        "ble",
        "m"
      ],
      [
        "cele",
        "br"
      ],
      [
        "H",
        "ow"
      ],
      [
        "R",
        "e"
      ],
      [
        "e",
        "ventually"
      ],
      [
        "g",
        "en"
      ],
      [
        "s",
        "ug"
      ],
      [
        "me",
        "et"
      ],
      [
        "col",
        "our"
      ],
      [
        "pro",
        "blem"
      ],
      [
        "ho",
        "p"
      ],
      [
        "br",
        "u"
      ],
      [
        "lad",
        "der"
      ],
      [
        "sear",
        "ch"
      ],
      [
        "cir",
        "cle"
      ],
      [
        "E",
        "l"
      ],
      [
        "h",
        "it"
      ],
      [
        "n",
        "um"
      ],
      [
        "ru",
        "bb"
      ],
      [
        "g",
        "ather"
      ],
      [
        "fo",
        "ld"
      ],
      [
        "shin",
        "ing"
      ],
      [
        "love",
        "s"
      ],
      [
        "gra",
        "b"
      ],
      [
        "sp",
        "icy"
      ],
      [
        "pic",
        "nic"
      ],
      [
        "spot",
        "ted"
      ],
      [
        "comfor",
        "table"
      ],
      [
        "d",
        "en"
      ],
      [
        "ce",
        "an"
      ],
      [
        "un",
        "i"
      ],
      [
        "sp",
        "ent"
      ],
      [
        "who",
        "le"
      ],
      [
        "o",
        "cean"
      ],
      [
        "so",
        "l"
      ],
      [
        "sh",
        "y"
      ],
      [
        "cle",
        "ver"
      ],
      [
        "pers",
        "on"
      ],
      [
        "h",
        "oney"
      ],
      [
        "k",
        "ick"
      ],
      [
        "l",
        "ay"
      ],
      [
        "wear",
        "ing"
      ],
      [
        "tast",
        "y"
      ],
      [
        "spl",
        "ash"
      ],
      [
        "sear",
        "ched"
      ],
      [
        "answ",
        "er"
      ],
      [
        "smel",
        "led"
      ],
      [
        "re",
        "ss"
      ],
      [
        "tal",
        "ked"
      ],
      [
        "heal",
        "thy"
      ],
      [
        "cray",
        "ons"
      ],
      [
        "S",
        "us"
      ],
      [
        "r",
        "at"
      ],
      [
        "st",
        "air"
      ],
      [
        "as",
        "leep"
      ],
      [
        "sm",
        "oo"
      ],
      [
        "fin",
        "ish"
      ],
      [
        "place",
        "s"
      ],
      [
        "sand",
        "w"
      ],
      [
        "Pe",
        "ter"
      ],
      [
        "l",
        "ater"
      ],
      [
        "p",
        "an"
      ],
      [
        "tal",
        "king"
      ],
      [
        "a",
        "il"
      ],
      [
        "in",
        "v"
      ],
      [
        "ve",
        "l"
      ],
      [
        "sh",
        "out"
      ],
      [
        "cor",
        "ner"
      ],
      [
        "lar",
        "ge"
      ],
      [
        "L",
        "ittle"
      ],
      [
        "P",
        "a"
      ],
      [
        "i",
        "an"
      ],
      [
        "n",
        "ut"
      ],
      [
        "w",
        "ild"
      ],
      [
        "sto",
        "rm"
      ],
      [
        "mis",
        "s"
      ],
      [
        "re",
        "mind"
      ],
      [
        "con",
        "fused"
      ],
      [
        "fru",
        "it"
      ],
      [
        "k",
        "itten"
      ],
      [
        "ho",
        "pe"
      ],
      [
        "smoo",
        "th"
      ],
      [
        "P",
        "et"
      ],
      [
        "c",
        "er"
      ],
      [
        "app",
        "les"
      ],
      [
        "n",
        "ed"
      ],
      [
        "help",
        "ful"
      ],
      [
        "far",
        "m"
      ],
      [
        "bug",
        "s"
      ],
      [
        "Some",
        "times"
      ],
      [
        "e",
        "se"
      ],
      [
        "fe",
        "ather"
      ],
      [
        "wait",
        "ing"
      ],
      [
        "scream",
        "ed"
      ],
      [
        "o",
        "in"
      ],
      [
        "o",
        "ven"
      ],
      [
        "w",
        "ide"
      ],
      [
        "st",
        "ring"
      ],
      [
        "she",
        "ll"
      ],
      [
        "em",
        "bar"
      ],
      [
        "wr",
        "ite"
      ],
      [
        "embar",
        "r"
      ],
      [
        "e",
        "gg"
      ],
      [
        "m",
        "il"
      ],
      [
        "re",
        "spec"
      ],
      [
        "st",
        "ep"
      ],
      [
        "co",
        "w"
      ],
      [
        "ber",
        "ries"
      ],
      [
        "ble",
        "w"
      ],
      [
        "rock",
        "et"
      ],
      [
        "pudd",
        "le"
      ],
      [
        "spid",
        "er"
      ],
      [
        "er",
        "a"
      ],
      [
        "te",
        "ach"
      ],
      [
        "app",
        "oin"
      ],
      [
        "p",
        "art"
      ],
      [
        "z",
        "oom"
      ],
      [
        "che",
        "st"
      ],
      [
        "dis",
        "appoin"
      ],
      [
        "pro",
        "t"
      ],
      [
        "whe",
        "never"
      ],
      [
        "myster",
        "ious"
      ],
      [
        "Sus",
        "ie"
      ],
      [
        "p",
        "ile"
      ],
      [
        "in",
        "c"
      ],
      [
        "wor",
        "d"
      ],
      [
        "Wh",
        "ile"
      ],
      [
        "gent",
        "ly"
      ],
      [
        "Pet",
        "e"
      ],
      [
        "E",
        "ven"
      ],
      [
        "a",
        "st"
      ],
      [
        "ck",
        "s"
      ],
      [
        "as",
        "ed"
      ],
      [
        "for",
        "ward"
      ],
      [
        "co",
        "p"
      ],
      [
        "anc",
        "y"
      ],
      [
        "duck",
        "s"
      ],
      [
        "mat",
        "ter"
      ],
      [
        "fur",
        "ry"
      ],
      [
        "embarr",
        "ass"
      ],
      [
        "t",
        "ro"
      ],
      [
        "le",
        "mon"
      ],
      [
        "sp",
        "e"
      ],
      [
        "la",
        "st"
      ],
      [
        "gr",
        "oup"
      ],
      [
        "pu",
        "zz"
      ],
      [
        "ug",
        "g"
      ],
      [
        "co",
        "at"
      ],
      [
        "de",
        "ter"
      ],
      [
        "imp",
        "ress"
      ],
      [
        "cou",
        "ch"
      ],
      [
        "bre",
        "ath"
      ],
      [
        "o",
        "s"
      ],
      [
        "wa",
        "ve"
      ],
      [
        "ul",
        "t"
      ],
      [
        "car",
        "ried"
      ],
      [
        "fe",
        "et"
      ],
      [
        "sh",
        "irt"
      ],
      [
        "fo",
        "ot"
      ],
      [
        "sn",
        "ake"
      ],
      [
        "fix",
        "ed"
      ],
      [
        "trou",
        "ble"
      ],
      [
        "stair",
        "s"
      ],
      [
        "te",
        "st"
      ],
      [
        "che",
        "ese"
      ],
      [
        "dri",
        "ve"
      ],
      [
        "hid",
        "den"
      ],
      [
        "power",
        "ful"
      ],
      [
        "eag",
        "er"
      ],
      [
        "s",
        "we"
      ],
      [
        "cor",
        "n"
      ],
      [
        "A",
        "re"
      ],
      [
        "M",
        "ittens"
      ],
      [
        "ad",
        "ow"
      ],
      [
        "m",
        "ir"
      ],
      [
        "p",
        "izz"
      ],
      [
        "or",
        "m"
      ],
      [
        "yel",
        "led"
      ],
      [
        "peace",
        "ful"
      ],
      [
        "disappoin",
        "ted"
      ],
      [
        "C",
        "h"
      ],
      [
        "M",
        "ar"
      ],
      [
        "h",
        "ang"
      ],
      [
        "p",
        "ill"
      ],
      [
        "sp",
        "read"
      ],
      [
        "ta",
        "ste"
      ],
      [
        "che",
        "er"
      ],
      [
        "whe",
        "el"
      ],
      [
        "respec",
        "t"
      ],
      [
        "f",
        "ig"
      ],
      [
        "g",
        "as"
      ],
      [
        "me",
        "adow"
      ],
      [
        "Bob",
        "by"
      ],
      [
        "pain",
        "ting"
      ],
      [
        "stand",
        "ing"
      ],
      [
        "prom",
        "ise"
      ],
      [
        "embarrass",
        "ed"
      ],
      [
        "F",
        "red"
      ],
      [
        "f",
        "li"
      ],
      [
        "f",
        "ancy"
      ],
      [
        "p",
        "ty"
      ],
      [
        "ca",
        "ge"
      ],
      [
        "em",
        "pty"
      ],
      [
        "tri",
        "p"
      ],
      [
        "pol",
        "ite"
      ],
      [
        "cal",
        "m"
      ],
      [
        "shar",
        "p"
      ],
      [
        "W",
        "ho"
      ],
      [
        "s",
        "our"
      ],
      [
        "is",
        "a"
      ],
      [
        "get",
        "able"
      ],
      [
        "cou",
        "ra"
      ],
      [
        "sleep",
        "y"
      ],
      [
        "L",
        "e"
      ],
      [
        "d",
        "i"
      ],
      [
        "ve",
        "getable"
      ],
      [
        "gre",
        "w"
      ],
      [
        "song",
        "s"
      ],
      [
        "L",
        "isa"
      ],
      [
        "v",
        "ous"
      ],
      [
        "st",
        "ir"
      ],
      [
        "for",
        "give"
      ],
      [
        "?\"",
        "."
      ],
      [
        "Every",
        "where"
      ],
      [
        "Let",
        "â"
      ],
      [
        "pretend",
        "ed"
      ],
      [
        "danc",
        "ing"
      ],
      [
        "B",
        "o"
      ],
      [
        "ro",
        "ad"
      ],
      [
        "po",
        "p"
      ],
      [
        "pizz",
        "a"
      ],
      [
        "T",
        "V"
      ],
      [
        "m",
        "ummy"
      ],
      [
        "v",
        "ie"
      ],
      [
        "end",
        "ing"
      ],
      [
        "sp",
        "it"
      ],
      [
        "ex",
        "am"
      ],
      [
        "cle",
        "ar"
      ],
      [
        "i",
        "fe"
      ],
      [
        "sa",
        "ur"
      ],
      [
        "ir",
        "d"
      ],
      [
        "ho",
        "pping"
      ],
      [
        "ber",
        "ry"
      ],
      [
        "ung",
        "le"
      ],
      [
        "mil",
        "k"
      ],
      [
        "b",
        "low"
      ],
      [
        "j",
        "ungle"
      ],
      [
        "it",
        "y"
      ],
      [
        "lo",
        "om"
      ],
      [
        "se",
        "at"
      ],
      [
        "mo",
        "tor"
      ],
      [
        "tight",
        "ly"
      ],
      [
        "mach",
        "ine"
      ],
      [
        "M",
        "e"
      ],
      [
        "b",
        "read"
      ],
      [
        "hid",
        "ing"
      ],
      [
        "I",
        "f"
      ],
      [
        "b",
        "ers"
      ],
      [
        "re",
        "s"
      ],
      [
        "st",
        "ra"
      ],
      [
        "be",
        "ll"
      ],
      [
        "as",
        "ha"
      ],
      [
        "p",
        "ec"
      ],
      [
        "s",
        "que"
      ],
      [
        "u",
        "ce"
      ],
      [
        "she",
        "lf"
      ],
      [
        "An",
        "n"
      ],
      [
        "give",
        "s"
      ],
      [
        "mat",
        "ch"
      ],
      [
        "f",
        "il"
      ],
      [
        "t",
        "id"
      ],
      [
        "be",
        "come"
      ],
      [
        "ug",
        "ly"
      ],
      [
        "ru",
        "de"
      ],
      [
        "ner",
        "vous"
      ],
      [
        "mou",
        "ntain"
      ],
      [
        "dir",
        "t"
      ],
      [
        "Tweet",
        "y"
      ],
      [
        "je",
        "wel"
      ],
      [
        "v",
        "ase"
      ],
      [
        "ig",
        "hed"
      ],
      [
        "sha",
        "ke"
      ],
      [
        "tr",
        "ust"
      ],
      [
        "jump",
        "ing"
      ],
      [
        "sl",
        "id"
      ],
      [
        "spark",
        "ly"
      ],
      [
        "su",
        "pp"
      ],
      [
        "mu",
        "d"
      ],
      [
        "S",
        "ee"
      ],
      [
        "f",
        "u"
      ],
      [
        "g",
        "ara"
      ],
      [
        "m",
        "ic"
      ],
      [
        "o",
        "saur"
      ],
      [
        "play",
        "ground"
      ],
      [
        "ca",
        "se"
      ],
      [
        "fl",
        "ut"
      ],
      [
        "fight",
        "ing"
      ],
      [
        "gara",
        "ge"
      ],
      [
        "mic",
        "ro"
      ],
      [
        "h",
        "ours"
      ],
      [
        "m",
        "ined"
      ],
      [
        "u",
        "al"
      ],
      [
        "om",
        "an"
      ],
      [
        "or",
        "n"
      ],
      [
        "as",
        "er"
      ],
      [
        "ro",
        "pe"
      ],
      [
        "din",
        "osaur"
      ],
      [
        "cook",
        "ie"
      ],
      [
        "creat",
        "ive"
      ],
      [
        "p",
        "ri"
      ],
      [
        "w",
        "oman"
      ],
      [
        "to",
        "mor"
      ],
      [
        "ch",
        "ick"
      ],
      [
        "car",
        "rot"
      ],
      [
        "stick",
        "s"
      ],
      [
        "whis",
        "tle"
      ],
      [
        "suc",
        "cess"
      ],
      [
        "deter",
        "mined"
      ],
      [
        "tomor",
        "row"
      ],
      [
        "d",
        "le"
      ],
      [
        "h",
        "um"
      ],
      [
        "the",
        "se"
      ],
      [
        "re",
        "g"
      ],
      [
        "He",
        "re"
      ],
      [
        "ne",
        "l"
      ],
      [
        "ca",
        "pe"
      ],
      [
        "us",
        "ual"
      ],
      [
        "dec",
        "or"
      ],
      [
        "iz",
        "zy"
      ],
      [
        "answ",
        "ered"
      ],
      [
        "Ted",
        "dy"
      ],
      [
        "S",
        "top"
      ],
      [
        "j",
        "am"
      ],
      [
        "st",
        "ret"
      ],
      [
        "as",
        "king"
      ],
      [
        "self",
        "ish"
      ],
      [
        "kno",
        "wn"
      ],
      [
        "chas",
        "ed"
      ],
      [
        "b",
        "ark"
      ],
      [
        "id",
        "dle"
      ],
      [
        "sa",
        "ve"
      ],
      [
        "fa",
        "ther"
      ],
      [
        "che",
        "w"
      ],
      [
        "face",
        "s"
      ],
      [
        "kno",
        "cked"
      ],
      [
        "minut",
        "es"
      ],
      [
        "e",
        "th"
      ],
      [
        "k",
        "in"
      ],
      [
        "fe",
        "ar"
      ],
      [
        "sp",
        "ray"
      ],
      [
        "To",
        "day"
      ],
      [
        "eas",
        "y"
      ],
      [
        "asha",
        "med"
      ],
      [
        "k",
        "nee"
      ],
      [
        "we",
        "ek"
      ],
      [
        "sk",
        "ipped"
      ],
      [
        "bed",
        "room"
      ],
      [
        "fl",
        "ag"
      ],
      [
        "bal",
        "ance"
      ],
      [
        "p",
        "our"
      ],
      [
        "an",
        "ut"
      ],
      [
        "ri",
        "ch"
      ],
      [
        "we",
        "ak"
      ],
      [
        "sha",
        "ring"
      ],
      [
        "dre",
        "w"
      ],
      [
        "pa",
        "w"
      ],
      [
        "plan",
        "ts"
      ],
      [
        "bar",
        "ked"
      ],
      [
        "tid",
        "y"
      ],
      [
        "l",
        "ves"
      ],
      [
        "p",
        "in"
      ],
      [
        "al",
        "s"
      ],
      [
        "know",
        "ing"
      ],
      [
        "te",
        "a"
      ],
      [
        "ign",
        "or"
      ],
      [
        "return",
        "ed"
      ],
      [
        "bru",
        "sh"
      ],
      [
        "f",
        "re"
      ],
      [
        "g",
        "low"
      ],
      [
        "la",
        "ce"
      ],
      [
        "po",
        "lice"
      ],
      [
        "exc",
        "ite"
      ],
      [
        "Hel",
        "p"
      ],
      [
        "s",
        "wan"
      ],
      [
        "t",
        "ears"
      ],
      [
        "in",
        "a"
      ],
      [
        "pl",
        "ant"
      ],
      [
        "gr",
        "ay"
      ],
      [
        "your",
        "self"
      ],
      [
        "hear",
        "s"
      ],
      [
        "mar",
        "ket"
      ],
      [
        "cho",
        "col"
      ],
      [
        "land",
        "ed"
      ],
      [
        "Mr",
        "s"
      ],
      [
        "on",
        "es"
      ],
      [
        "al",
        "most"
      ],
      [
        "itt",
        "er"
      ],
      [
        "me",
        "ant"
      ],
      [
        "tr",
        "ue"
      ],
      [
        "te",
        "eth"
      ],
      [
        "mar",
        "ble"
      ],
      [
        "pass",
        "ed"
      ],
      [
        "gi",
        "ant"
      ],
      [
        "neck",
        "lace"
      ],
      [
        "excite",
        "ment"
      ],
      [
        "b",
        "an"
      ],
      [
        "l",
        "ine"
      ],
      [
        "m",
        "iddle"
      ],
      [
        "ho",
        "spit"
      ],
      [
        "go",
        "es"
      ],
      [
        "dog",
        "s"
      ],
      [
        "wo",
        "re"
      ],
      [
        "dis",
        "appeared"
      ],
      [
        "pack",
        "ed"
      ],
      [
        "su",
        "it"
      ],
      [
        "gigg",
        "led"
      ],
      [
        "ban",
        "an"
      ],
      [
        "B",
        "u"
      ],
      [
        "J",
        "u"
      ],
      [
        "c",
        "and"
      ],
      [
        "d",
        "epend"
      ],
      [
        "pl",
        "ate"
      ],
      [
        "for",
        "m"
      ],
      [
        "us",
        "ing"
      ],
      [
        "clo",
        "wn"
      ],
      [
        "ump",
        "y"
      ],
      [
        "under",
        "stood"
      ],
      [
        "hospit",
        "al"
      ],
      [
        "E",
        "ventually"
      ],
      [
        "m",
        "aybe"
      ],
      [
        "too",
        "l"
      ],
      [
        "sho",
        "re"
      ],
      [
        "fl",
        "uffy"
      ],
      [
        "mis",
        "sed"
      ],
      [
        "whis",
        "per"
      ],
      [
        "snack",
        "s"
      ],
      [
        "colour",
        "ful"
      ],
      [
        "chocol",
        "ate"
      ],
      [
        "M",
        "ark"
      ],
      [
        "c",
        "y"
      ],
      [
        "to",
        "wel"
      ],
      [
        "le",
        "ad"
      ],
      [
        "un",
        "usual"
      ],
      [
        "cou",
        "nt"
      ],
      [
        "spl",
        "a"
      ],
      [
        "treat",
        "s"
      ],
      [
        "b",
        "s"
[...]
